{
  "version": "1.0",
  "truncation": null,
  "padding": null,
  "added_tokens": [
    {
      "id": 0,
      "content": "\n",
      "single_word": false,
      "lstrip": false,
      "rstrip": false,
      "normalized": false,
      "special": true
    }
  ],
  "normalizer": null,
  "pre_tokenizer": {
    "type": "Whitespace"
  },
  "post_processor": null,
  "decoder": null,
  "model": {
    "type": "BPE",
    "dropout": null,
    "unk_token": null,
    "continuing_subword_prefix": "##",
    "end_of_word_suffix": null,
    "fuse_unk": false,
    "vocab": {
      "\n": 0,
      "\u0000": 1,
      "!": 2,
      "\"": 3,
      "#": 4,
      "'": 5,
      ":": 6,
      ">": 7,
      "?": 8,
      "A": 9,
      "Q": 10,
      "\\": 11,
      "`": 12,
      "|": 13,
      "~": 14,
      "¡": 15,
      "£": 16,
      "¤": 17,
      "©": 18,
      "«": 19,
      "­": 20,
      "¯": 21,
      "°": 22,
      "²": 23,
      "³": 24,
      "·": 25,
      "¹": 26,
      "»": 27,
      "½": 28,
      "¿": 29,
      "Ç": 30,
      "×": 31,
      "ß": 32,
      "à": 33,
      "ç": 34,
      "è": 35,
      "é": 36,
      "ê": 37,
      "ë": 38,
      "ï": 39,
      "ò": 40,
      "ó": 41,
      "ö": 42,
      "÷": 43,
      "û": 44,
      "ü": 45,
      "ý": 46,
      "ā": 47,
      "ğ": 48,
      "ı": 49,
      "ş": 50,
      "ə": 51,
      "ɞ": 52,
      "ʋ": 53,
      "ʖ": 54,
      "ʘ": 55,
      "ʚ": 56,
      "ʰ": 57,
      "ʳ": 58,
      "ʷ": 59,
      "ʸ": 60,
      "˘": 61,
      "ˡ": 62,
      "ˢ": 63,
      "̀": 64,
      "́": 65,
      "͜": 66,
      "ω": 67,
      "В": 68,
      "،": 69,
      "؏": 70,
      "؛": 71,
      "؜": 72,
      "؟": 73,
      "ء": 74,
      "آ": 75,
      "أ": 76,
      "ؤ": 77,
      "إ": 78,
      "ئ": 79,
      "ا": 80,
      "ب": 81,
      "ة": 82,
      "ت": 83,
      "ث": 84,
      "ج": 85,
      "ح": 86,
      "خ": 87,
      "د": 88,
      "ذ": 89,
      "ر": 90,
      "ز": 91,
      "س": 92,
      "ش": 93,
      "ص": 94,
      "ض": 95,
      "ط": 96,
      "ظ": 97,
      "ع": 98,
      "غ": 99,
      "ف": 100,
      "ق": 101,
      "ل": 102,
      "م": 103,
      "ن": 104,
      "ه": 105,
      "و": 106,
      "ى": 107,
      "ٓ": 108,
      "ٔ": 109,
      "ٕ": 110,
      "ٙ": 111,
      "٠": 112,
      "١": 113,
      "٢": 114,
      "٣": 115,
      "٤": 116,
      "٥": 117,
      "٦": 118,
      "٧": 119,
      "٨": 120,
      "٩": 121,
      "٪": 122,
      "٫": 123,
      "٬": 124,
      "٭": 125,
      "ٮ": 126,
      "ٰ": 127,
      "ٱ": 128,
      "ٲ": 129,
      "ٵ": 130,
      "ٸ": 131,
      "ٹ": 132,
      "ٺ": 133,
      "ٻ": 134,
      "ټ": 135,
      "پ": 136,
      "ڀ": 137,
      "ڄ": 138,
      "چ": 139,
      "ډ": 140,
      "ڊ": 141,
      "ڋ": 142,
      "ڌ": 143,
      "ڎ": 144,
      "ڐ": 145,
      "ڑ": 146,
      "ڔ": 147,
      "ڕ": 148,
      "ڗ": 149,
      "ژ": 150,
      "ڙ": 151,
      "ڛ": 152,
      "ڟ": 153,
      "ڠ": 154,
      "ک": 155,
      "ڪ": 156,
      "ګ": 157,
      "ڭ": 158,
      "گ": 159,
      "ڱ": 160,
      "ڵ": 161,
      "ڹ": 162,
      "ں": 163,
      "ڽ": 164,
      "ھ": 165,
      "ۀ": 166,
      "ہ": 167,
      "ۂ": 168,
      "ۆ": 169,
      "ۉ": 170,
      "ی": 171,
      "ۍ": 172,
      "ێ": 173,
      "ے": 174,
      "ۓ": 175,
      "۔": 176,
      "ە": 177,
      "ۖ": 178,
      "ۗ": 179,
      "ۚ": 180,
      "۞": 181,
      "۰": 182,
      "۱": 183,
      "۲": 184,
      "۳": 185,
      "۴": 186,
      "۵": 187,
      "۶": 188,
      "۷": 189,
      "۸": 190,
      "۹": 191,
      "ۺ": 192,
      "ۻ": 193,
      "۾": 194,
      "ݝ": 195,
      "ݟ": 196,
      "ݥ": 197,
      "ݦ": 198,
      "ݪ": 199,
      "ݭ": 200,
      "ࢪ": 201,
      "ू": 202,
      "ঊ": 203,
      "ಠ": 204,
      "ಥ": 205,
      "฿": 206,
      "๑": 207,
      "ຶ": 208,
      "໒": 209,
      "༎": 210,
      "༼": 211,
      "༽": 212,
      "ღ": 213,
      "ᕕ": 214,
      "ᕗ": 215,
      "ᕤ": 216,
      "ᕦ": 217,
      "ᥬ": 218,
      "᭄": 219,
      "᯽": 220,
      "ᴗ": 221,
      "ᴥ": 222,
      "ᵃ": 223,
      "ᵇ": 224,
      "ᵈ": 225,
      "ᵉ": 226,
      "ᵍ": 227,
      "ᵏ": 228,
      "ᵐ": 229,
      "ᵒ": 230,
      "ᵖ": 231,
      "ᵗ": 232,
      "ᵘ": 233,
      "ᵛ": 234,
      "ᵠ": 235,
      "ᶜ": 236,
      "ᶠ": 237,
      "​": 238,
      "‌": 239,
      "‎": 240,
      "‏": 241,
      "–": 242,
      "—": 243,
      "‘": 244,
      "’": 245,
      "•": 246,
      "…": 247,
      "‪": 248,
      "‬": 249,
      "‭": 250,
      "‰": 251,
      "″": 252,
      "‹": 253,
      "›": 254,
      "‼": 255,
      "‿": 256,
      "⁉": 257,
      "⁣": 258,
      "⁦": 259,
      "⁩": 260,
      "ⁱ": 261,
      "⁴": 262,
      "⁹": 263,
      "ⁿ": 264,
      "₪": 265,
      "€": 266,
      "⃛": 267,
      "⃟": 268,
      "⃣": 269,
      "℅": 270,
      "ℎ": 271,
      "™": 272,
      "⅔": 273,
      "←": 274,
      "→": 275,
      "↔": 276,
      "↘": 277,
      "↙": 278,
      "↩": 279,
      "↯": 280,
      "⇜": 281,
      "⇝": 282,
      "⇦": 283,
      "⇩": 284,
      "−": 285,
      "√": 286,
      "∞": 287,
      "∫": 288,
      "⊂": 289,
      "⊙": 290,
      "⊰": 291,
      "⊱": 292,
      "⌚": 293,
      "⌛": 294,
      "⏰": 295,
      "⏳": 296,
      "①": 297,
      "②": 298,
      "③": 299,
      "④": 300,
      "Ⓜ": 301,
      "─": 302,
      "━": 303,
      "┄": 304,
      "┅": 305,
      "┈": 306,
      "├": 307,
      "┤": 308,
      "┻": 309,
      "═": 310,
      "╥": 311,
      "╭": 312,
      "╮": 313,
      "╯": 314,
      "▁": 315,
      "▂": 316,
      "▄": 317,
      "▅": 318,
      "▆": 319,
      "▇": 320,
      "█": 321,
      "■": 322,
      "□": 323,
      "▪": 324,
      "▫": 325,
      "▾": 326,
      "◀": 327,
      "◇": 328,
      "◉": 329,
      "○": 330,
      "◎": 331,
      "●": 332,
      "◔": 333,
      "◕": 334,
      "◠": 335,
      "◾": 336,
      "☀": 337,
      "☁": 338,
      "☂": 339,
      "☃": 340,
      "☄": 341,
      "★": 342,
      "☆": 343,
      "☇": 344,
      "☎": 345,
      "☑": 346,
      "☔": 347,
      "☕": 348,
      "☘": 349,
      "☝": 350,
      "☠": 351,
      "☸": 352,
      "☹": 353,
      "☺": 354,
      "☻": 355,
      "♀": 356,
      "♂": 357,
      "♉": 358,
      "♊": 359,
      "♋": 360,
      "♌": 361,
      "♍": 362,
      "♎": 363,
      "♑": 364,
      "♒": 365,
      "♕": 366,
      "♟": 367,
      "♠": 368,
      "♡": 369,
      "♣": 370,
      "♤": 371,
      "♥": 372,
      "♦": 373,
      "♨": 374,
      "♩": 375,
      "♪": 376,
      "♫": 377,
      "♬": 378,
      "♭": 379,
      "♻": 380,
      "♾": 381,
      "⚀": 382,
      "⚔": 383,
      "⚕": 384,
      "⚖": 385,
      "⚘": 386,
      "⚛": 387,
      "⚜": 388,
      "⚠": 389,
      "⚡": 390,
      "⚪": 391,
      "⚫": 392,
      "⚰": 393,
      "⚱": 394,
      "⚽": 395,
      "⛄": 396,
      "⛅": 397,
      "⛈": 398,
      "⛏": 399,
      "⛑": 400,
      "⛓": 401,
      "⛔": 402,
      "⛰": 403,
      "⛱": 404,
      "⛴": 405,
      "⛷": 406,
      "⛹": 407,
      "⛺": 408,
      "✂": 409,
      "✅": 410,
      "✈": 411,
      "✉": 412,
      "✊": 413,
      "✋": 414,
      "✌": 415,
      "✍": 416,
      "✏": 417,
      "✒": 418,
      "✓": 419,
      "✔": 420,
      "✖": 421,
      "✦": 422,
      "✧": 423,
      "✨": 424,
      "✪": 425,
      "✮": 426,
      "✯": 427,
      "✰": 428,
      "✳": 429,
      "✴": 430,
      "✵": 431,
      "✷": 432,
      "✾": 433,
      "✿": 434,
      "❀": 435,
      "❁": 436,
      "❄": 437,
      "❅": 438,
      "❇": 439,
      "❈": 440,
      "❊": 441,
      "❌": 442,
      "❎": 443,
      "❓": 444,
      "❕": 445,
      "❗": 446,
      "❣": 447,
      "❤": 448,
      "❥": 449,
      "❦": 450,
      "❧": 451,
      "❶": 452,
      "❷": 453,
      "❸": 454,
      "➊": 455,
      "➋": 456,
      "➌": 457,
      "➕": 458,
      "➖": 459,
      "➡": 460,
      "➥": 461,
      "➷": 462,
      "➻": 463,
      "➿": 464,
      "⤴": 465,
      "⬅": 466,
      "⬇": 467,
      "⬛": 468,
      "⬜": 469,
      "⭐": 470,
      "⭕": 471,
      "《": 472,
      "》": 473,
      "「": 474,
      "『": 475,
      "』": 476,
      "【": 477,
      "】": 478,
      "〖": 479,
      "〗": 480,
      "〰": 481,
      "〽": 482,
      "で": 483,
      "イ": 484,
      "グ": 485,
      "シ": 486,
      "タ": 487,
      "ヅ": 488,
      "ピ": 489,
      "ン": 490,
      "・": 491,
      "料": 492,
      "無": 493,
      "練": 494,
      "習": 495,
      "ꔷ": 496,
      "강": 497,
      "랑": 498,
      "사": 499,
      "산": 500,
      "상": 501,
      "아": 502,
      "여": 503,
      "해": 504,
      "ﭐ": 505,
      "ﭖ": 506,
      "ﭗ": 507,
      "ﭘ": 508,
      "ﭙ": 509,
      "ﭺ": 510,
      "ﭻ": 511,
      "ﭼ": 512,
      "ﭽ": 513,
      "ﮊ": 514,
      "ﮋ": 515,
      "ﮎ": 516,
      "ﮏ": 517,
      "ﮐ": 518,
      "ﮑ": 519,
      "ﮒ": 520,
      "ﮓ": 521,
      "ﮔ": 522,
      "ﮕ": 523,
      "ﮤ": 524,
      "ﯼ": 525,
      "ﯽ": 526,
      "ﯾ": 527,
      "ﯿ": 528,
      "﴾": 529,
      "﴿": 530,
      "ﷺ": 531,
      "ﷻ": 532,
      "﷼": 533,
      "﷽": 534,
      "︎": 535,
      "️": 536,
      "︵": 537,
      "︶": 538,
      "﹏": 539,
      "ﺀ": 540,
      "ﺁ": 541,
      "ﺂ": 542,
      "ﺃ": 543,
      "ﺄ": 544,
      "ﺆ": 545,
      "ﺇ": 546,
      "ﺋ": 547,
      "ﺍ": 548,
      "ﺎ": 549,
      "ﺏ": 550,
      "ﺐ": 551,
      "ﺑ": 552,
      "ﺒ": 553,
      "ﺓ": 554,
      "ﺔ": 555,
      "ﺕ": 556,
      "ﺖ": 557,
      "ﺗ": 558,
      "ﺘ": 559,
      "ﺚ": 560,
      "ﺛ": 561,
      "ﺜ": 562,
      "ﺝ": 563,
      "ﺞ": 564,
      "ﺟ": 565,
      "ﺠ": 566,
      "ﺡ": 567,
      "ﺢ": 568,
      "ﺣ": 569,
      "ﺤ": 570,
      "ﺥ": 571,
      "ﺦ": 572,
      "ﺧ": 573,
      "ﺨ": 574,
      "ﺩ": 575,
      "ﺪ": 576,
      "ﺫ": 577,
      "ﺬ": 578,
      "ﺭ": 579,
      "ﺮ": 580,
      "ﺯ": 581,
      "ﺰ": 582,
      "ﺱ": 583,
      "ﺲ": 584,
      "ﺳ": 585,
      "ﺴ": 586,
      "ﺵ": 587,
      "ﺶ": 588,
      "ﺷ": 589,
      "ﺸ": 590,
      "ﺹ": 591,
      "ﺺ": 592,
      "ﺻ": 593,
      "ﺼ": 594,
      "ﺽ": 595,
      "ﺾ": 596,
      "ﺿ": 597,
      "ﻀ": 598,
      "ﻁ": 599,
      "ﻂ": 600,
      "ﻃ": 601,
      "ﻄ": 602,
      "ﻆ": 603,
      "ﻇ": 604,
      "ﻈ": 605,
      "ﻉ": 606,
      "ﻊ": 607,
      "ﻋ": 608,
      "ﻌ": 609,
      "ﻍ": 610,
      "ﻏ": 611,
      "ﻐ": 612,
      "ﻑ": 613,
      "ﻒ": 614,
      "ﻓ": 615,
      "ﻔ": 616,
      "ﻕ": 617,
      "ﻖ": 618,
      "ﻗ": 619,
      "ﻘ": 620,
      "ﻙ": 621,
      "ﻚ": 622,
      "ﻛ": 623,
      "ﻜ": 624,
      "ﻝ": 625,
      "ﻞ": 626,
      "ﻟ": 627,
      "ﻠ": 628,
      "ﻡ": 629,
      "ﻢ": 630,
      "ﻣ": 631,
      "ﻤ": 632,
      "ﻥ": 633,
      "ﻦ": 634,
      "ﻧ": 635,
      "ﻨ": 636,
      "ﻩ": 637,
      "ﻪ": 638,
      "ﻫ": 639,
      "ﻬ": 640,
      "ﻭ": 641,
      "ﻮ": 642,
      "ﻯ": 643,
      "ﻰ": 644,
      "ﻱ": 645,
      "ﻲ": 646,
      "ﻳ": 647,
      "ﻴ": 648,
      "ﻵ": 649,
      "ﻻ": 650,
      "ﻼ": 651,
      "﻿": 652,
      "（": 653,
      "）": 654,
      "：": 655,
      "＾": 656,
      "＿": 657,
      "｡": 658,
      "ｼ": 659,
      "￣": 660,
      "￵": 661,
      "￸": 662,
      "￻": 663,
      "￼": 664,
      "�": 665,
      "￾": 666,
      "𓆩": 667,
      "𓆪": 668,
      "𝐁": 669,
      "𝐓": 670,
      "𝐚": 671,
      "𝐛": 672,
      "𝐜": 673,
      "𝐝": 674,
      "𝐞": 675,
      "𝐡": 676,
      "𝐢": 677,
      "𝐤": 678,
      "𝐥": 679,
      "𝐧": 680,
      "𝐨": 681,
      "𝐩": 682,
      "𝐫": 683,
      "𝐬": 684,
      "𝐭": 685,
      "𝐮": 686,
      "𝐯": 687,
      "𝐰": 688,
      "𝐲": 689,
      "𝐵": 690,
      "𝑎": 691,
      "𝑒": 692,
      "𝑓": 693,
      "𝑖": 694,
      "𝑘": 695,
      "𝑙": 696,
      "𝑛": 697,
      "𝑝": 698,
      "𝑠": 699,
      "𝑡": 700,
      "𝑢": 701,
      "𝑥": 702,
      "𝑮": 703,
      "𝒂": 704,
      "𝒅": 705,
      "𝒆": 706,
      "𝒇": 707,
      "𝒈": 708,
      "𝒉": 709,
      "𝒊": 710,
      "𝒏": 711,
      "𝒐": 712,
      "𝒑": 713,
      "𝒓": 714,
      "𝒔": 715,
      "𝒕": 716,
      "𝒖": 717,
      "𝒗": 718,
      "𝒚": 719,
      "𝖆": 720,
      "𝖈": 721,
      "𝖍": 722,
      "𝖎": 723,
      "𝖐": 724,
      "𝖒": 725,
      "𝖔": 726,
      "𝖕": 727,
      "𝖘": 728,
      "𝖙": 729,
      "𝖚": 730,
      "𝗮": 731,
      "𝗵": 732,
      "𝗺": 733,
      "𝗽": 734,
      "𝘀": 735,
      "🃏": 736,
      "🅱": 737,
      "🅾": 738,
      "🆓": 739,
      "🆔": 740,
      "🆗": 741,
      "🆘": 742,
      "🇬": 743,
      "🇮": 744,
      "🇰": 745,
      "🇶": 746,
      "🇷": 747,
      "🇸": 748,
      "🇹": 749,
      "🇺": 750,
      "🌀": 751,
      "🌃": 752,
      "🌄": 753,
      "🌅": 754,
      "🌈": 755,
      "🌊": 756,
      "🌋": 757,
      "🌌": 758,
      "🌍": 759,
      "🌎": 760,
      "🌏": 761,
      "🌐": 762,
      "🌑": 763,
      "🌒": 764,
      "🌓": 765,
      "🌕": 766,
      "🌗": 767,
      "🌙": 768,
      "🌚": 769,
      "🌛": 770,
      "🌜": 771,
      "🌝": 772,
      "🌞": 773,
      "🌟": 774,
      "🌠": 775,
      "🌥": 776,
      "🌧": 777,
      "🌨": 778,
      "🌩": 779,
      "🌪": 780,
      "🌫": 781,
      "🌬": 782,
      "🌭": 783,
      "🌮": 784,
      "🌯": 785,
      "🌰": 786,
      "🌱": 787,
      "🌲": 788,
      "🌳": 789,
      "🌴": 790,
      "🌵": 791,
      "🌶": 792,
      "🌷": 793,
      "🌸": 794,
      "🌹": 795,
      "🌺": 796,
      "🌻": 797,
      "🌼": 798,
      "🌽": 799,
      "🌾": 800,
      "🌿": 801,
      "🍀": 802,
      "🍁": 803,
      "🍂": 804,
      "🍃": 805,
      "🍄": 806,
      "🍅": 807,
      "🍆": 808,
      "🍇": 809,
      "🍈": 810,
      "🍉": 811,
      "🍊": 812,
      "🍋": 813,
      "🍌": 814,
      "🍍": 815,
      "🍎": 816,
      "🍏": 817,
      "🍐": 818,
      "🍑": 819,
      "🍒": 820,
      "🍓": 821,
      "🍔": 822,
      "🍕": 823,
      "🍖": 824,
      "🍗": 825,
      "🍚": 826,
      "🍛": 827,
      "🍜": 828,
      "🍝": 829,
      "🍞": 830,
      "🍟": 831,
      "🍠": 832,
      "🍡": 833,
      "🍢": 834,
      "🍣": 835,
      "🍤": 836,
      "🍥": 837,
      "🍦": 838,
      "🍧": 839,
      "🍨": 840,
      "🍩": 841,
      "🍪": 842,
      "🍫": 843,
      "🍬": 844,
      "🍭": 845,
      "🍮": 846,
      "🍯": 847,
      "🍰": 848,
      "🍱": 849,
      "🍲": 850,
      "🍳": 851,
      "🍴": 852,
      "🍵": 853,
      "🍶": 854,
      "🍷": 855,
      "🍸": 856,
      "🍹": 857,
      "🍺": 858,
      "🍻": 859,
      "🍼": 860,
      "🍽": 861,
      "🍾": 862,
      "🍿": 863,
      "🎀": 864,
      "🎁": 865,
      "🎂": 866,
      "🎃": 867,
      "🎄": 868,
      "🎅": 869,
      "🎆": 870,
      "🎇": 871,
      "🎈": 872,
      "🎉": 873,
      "🎊": 874,
      "🎋": 875,
      "🎍": 876,
      "🎎": 877,
      "🎏": 878,
      "🎐": 879,
      "🎑": 880,
      "🎒": 881,
      "🎓": 882,
      "🎖": 883,
      "🎗": 884,
      "🎙": 885,
      "🎞": 886,
      "🎡": 887,
      "🎤": 888,
      "🎥": 889,
      "🎧": 890,
      "🎨": 891,
      "🎩": 892,
      "🎫": 893,
      "🎬": 894,
      "🎭": 895,
      "🎱": 896,
      "🎲": 897,
      "🎳": 898,
      "🎴": 899,
      "🎵": 900,
      "🎶": 901,
      "🎷": 902,
      "🎸": 903,
      "🎹": 904,
      "🎺": 905,
      "🎻": 906,
      "🎼": 907,
      "🎾": 908,
      "🏁": 909,
      "🏂": 910,
      "🏃": 911,
      "🏄": 912,
      "🏅": 913,
      "🏆": 914,
      "🏇": 915,
      "🏊": 916,
      "🏋": 917,
      "🏒": 918,
      "🏓": 919,
      "🏔": 920,
      "🏕": 921,
      "🏖": 922,
      "🏘": 923,
      "🏜": 924,
      "🏝": 925,
      "🏞": 926,
      "🏠": 927,
      "🏡": 928,
      "🏢": 929,
      "🏨": 930,
      "🏩": 931,
      "🏫": 932,
      "🏮": 933,
      "🏰": 934,
      "🏳": 935,
      "🏴": 936,
      "🏵": 937,
      "🏹": 938,
      "🏺": 939,
      "🏻": 940,
      "🏼": 941,
      "🏽": 942,
      "🏾": 943,
      "🏿": 944,
      "🐀": 945,
      "🐁": 946,
      "🐂": 947,
      "🐃": 948,
      "🐄": 949,
      "🐅": 950,
      "🐆": 951,
      "🐇": 952,
      "🐈": 953,
      "🐉": 954,
      "🐊": 955,
      "🐌": 956,
      "🐍": 957,
      "🐎": 958,
      "🐏": 959,
      "🐐": 960,
      "🐑": 961,
      "🐒": 962,
      "🐓": 963,
      "🐔": 964,
      "🐕": 965,
      "🐘": 966,
      "🐙": 967,
      "🐛": 968,
      "🐜": 969,
      "🐝": 970,
      "🐟": 971,
      "🐠": 972,
      "🐢": 973,
      "🐣": 974,
      "🐤": 975,
      "🐥": 976,
      "🐦": 977,
      "🐧": 978,
      "🐨": 979,
      "🐩": 980,
      "🐪": 981,
      "🐫": 982,
      "🐭": 983,
      "🐮": 984,
      "🐯": 985,
      "🐰": 986,
      "🐱": 987,
      "🐲": 988,
      "🐴": 989,
      "🐵": 990,
      "🐶": 991,
      "🐷": 992,
      "🐸": 993,
      "🐹": 994,
      "🐺": 995,
      "🐻": 996,
      "🐼": 997,
      "🐽": 998,
      "🐾": 999,
      "👀": 1000,
      "👁": 1001,
      "👂": 1002,
      "👃": 1003,
      "👄": 1004,
      "👅": 1005,
      "👆": 1006,
      "👇": 1007,
      "👈": 1008,
      "👉": 1009,
      "👊": 1010,
      "👋": 1011,
      "👌": 1012,
      "👍": 1013,
      "👎": 1014,
      "👏": 1015,
      "👐": 1016,
      "👑": 1017,
      "👒": 1018,
      "👔": 1019,
      "👕": 1020,
      "👖": 1021,
      "👗": 1022,
      "👘": 1023,
      "👙": 1024,
      "👚": 1025,
      "👛": 1026,
      "👜": 1027,
      "👝": 1028,
      "👞": 1029,
      "👟": 1030,
      "👠": 1031,
      "👡": 1032,
      "👢": 1033,
      "👣": 1034,
      "👤": 1035,
      "👦": 1036,
      "👧": 1037,
      "👨": 1038,
      "👩": 1039,
      "👪": 1040,
      "👫": 1041,
      "👬": 1042,
      "👭": 1043,
      "👮": 1044,
      "👯": 1045,
      "👰": 1046,
      "👱": 1047,
      "👲": 1048,
      "👳": 1049,
      "👴": 1050,
      "👵": 1051,
      "👶": 1052,
      "👷": 1053,
      "👸": 1054,
      "👹": 1055,
      "👺": 1056,
      "👻": 1057,
      "👼": 1058,
      "👽": 1059,
      "👾": 1060,
      "👿": 1061,
      "💀": 1062,
      "💁": 1063,
      "💂": 1064,
      "💃": 1065,
      "💄": 1066,
      "💅": 1067,
      "💆": 1068,
      "💇": 1069,
      "💉": 1070,
      "💊": 1071,
      "💋": 1072,
      "💌": 1073,
      "💍": 1074,
      "💎": 1075,
      "💏": 1076,
      "💐": 1077,
      "💑": 1078,
      "💒": 1079,
      "💓": 1080,
      "💔": 1081,
      "💕": 1082,
      "💖": 1083,
      "💗": 1084,
      "💘": 1085,
      "💙": 1086,
      "💚": 1087,
      "💛": 1088,
      "💜": 1089,
      "💝": 1090,
      "💞": 1091,
      "💟": 1092,
      "💠": 1093,
      "💡": 1094,
      "💢": 1095,
      "💣": 1096,
      "💤": 1097,
      "💥": 1098,
      "💦": 1099,
      "💧": 1100,
      "💨": 1101,
      "💩": 1102,
      "💪": 1103,
      "💫": 1104,
      "💬": 1105,
      "💭": 1106,
      "💮": 1107,
      "💯": 1108,
      "💰": 1109,
      "💱": 1110,
      "💲": 1111,
      "💳": 1112,
      "💵": 1113,
      "💶": 1114,
      "💷": 1115,
      "💸": 1116,
      "💹": 1117,
      "💺": 1118,
      "💼": 1119,
      "📀": 1120,
      "📃": 1121,
      "📆": 1122,
      "📊": 1123,
      "📋": 1124,
      "📌": 1125,
      "📍": 1126,
      "📎": 1127,
      "📑": 1128,
      "📒": 1129,
      "📔": 1130,
      "📕": 1131,
      "📖": 1132,
      "📗": 1133,
      "📘": 1134,
      "📙": 1135,
      "📚": 1136,
      "📛": 1137,
      "📜": 1138,
      "📝": 1139,
      "📞": 1140,
      "📢": 1141,
      "📣": 1142,
      "📥": 1143,
      "📦": 1144,
      "📧": 1145,
      "📨": 1146,
      "📩": 1147,
      "📬": 1148,
      "📮": 1149,
      "📯": 1150,
      "📱": 1151,
      "📲": 1152,
      "📳": 1153,
      "📵": 1154,
      "📷": 1155,
      "📸": 1156,
      "📹": 1157,
      "📺": 1158,
      "📽": 1159,
      "📿": 1160,
      "🔅": 1161,
      "🔆": 1162,
      "🔇": 1163,
      "🔈": 1164,
      "🔉": 1165,
      "🔊": 1166,
      "🔌": 1167,
      "🔍": 1168,
      "🔎": 1169,
      "🔐": 1170,
      "🔑": 1171,
      "🔒": 1172,
      "🔓": 1173,
      "🔔": 1174,
      "🔗": 1175,
      "🔘": 1176,
      "🔙": 1177,
      "🔛": 1178,
      "🔜": 1179,
      "🔝": 1180,
      "🔞": 1181,
      "🔟": 1182,
      "🔥": 1183,
      "🔧": 1184,
      "🔨": 1185,
      "🔩": 1186,
      "🔪": 1187,
      "🔫": 1188,
      "🔬": 1189,
      "🔭": 1190,
      "🔮": 1191,
      "🔰": 1192,
      "🔱": 1193,
      "🔲": 1194,
      "🔴": 1195,
      "🔵": 1196,
      "🔶": 1197,
      "🔷": 1198,
      "🔸": 1199,
      "🔹": 1200,
      "🔺": 1201,
      "🔻": 1202,
      "🔼": 1203,
      "🔽": 1204,
      "🕊": 1205,
      "🕋": 1206,
      "🕌": 1207,
      "🕐": 1208,
      "🕑": 1209,
      "🕒": 1210,
      "🕛": 1211,
      "🕜": 1212,
      "🕧": 1213,
      "🕨": 1214,
      "🕩": 1215,
      "🕪": 1216,
      "🕯": 1217,
      "🕰": 1218,
      "🕳": 1219,
      "🕴": 1220,
      "🕵": 1221,
      "🕶": 1222,
      "🕷": 1223,
      "🕸": 1224,
      "🕺": 1225,
      "🖇": 1226,
      "🖊": 1227,
      "🖋": 1228,
      "🖌": 1229,
      "🖐": 1230,
      "🖑": 1231,
      "🖒": 1232,
      "🖓": 1233,
      "🖕": 1234,
      "🖖": 1235,
      "🖤": 1236,
      "🖥": 1237,
      "🖼": 1238,
      "🗃": 1239,
      "🗓": 1240,
      "🗝": 1241,
      "🗡": 1242,
      "🗣": 1243,
      "🗨": 1244,
      "🗯": 1245,
      "🗻": 1246,
      "🗼": 1247,
      "🗽": 1248,
      "🗾": 1249,
      "🗿": 1250,
      "😀": 1251,
      "😁": 1252,
      "😂": 1253,
      "😃": 1254,
      "😄": 1255,
      "😅": 1256,
      "😆": 1257,
      "😇": 1258,
      "😈": 1259,
      "😉": 1260,
      "😊": 1261,
      "😋": 1262,
      "😌": 1263,
      "😍": 1264,
      "😎": 1265,
      "😏": 1266,
      "😐": 1267,
      "😑": 1268,
      "😒": 1269,
      "😓": 1270,
      "😔": 1271,
      "😕": 1272,
      "😖": 1273,
      "😗": 1274,
      "😘": 1275,
      "😙": 1276,
      "😚": 1277,
      "😛": 1278,
      "😜": 1279,
      "😝": 1280,
      "😞": 1281,
      "😟": 1282,
      "😠": 1283,
      "😡": 1284,
      "😢": 1285,
      "😣": 1286,
      "😤": 1287,
      "😥": 1288,
      "😦": 1289,
      "😧": 1290,
      "😨": 1291,
      "😩": 1292,
      "😪": 1293,
      "😫": 1294,
      "😬": 1295,
      "😭": 1296,
      "😮": 1297,
      "😯": 1298,
      "😰": 1299,
      "😱": 1300,
      "😲": 1301,
      "😳": 1302,
      "😴": 1303,
      "😵": 1304,
      "😶": 1305,
      "😷": 1306,
      "😸": 1307,
      "😹": 1308,
      "😺": 1309,
      "😻": 1310,
      "😼": 1311,
      "😽": 1312,
      "😾": 1313,
      "😿": 1314,
      "🙀": 1315,
      "🙁": 1316,
      "🙂": 1317,
      "🙃": 1318,
      "🙄": 1319,
      "🙅": 1320,
      "🙆": 1321,
      "🙇": 1322,
      "🙈": 1323,
      "🙉": 1324,
      "🙊": 1325,
      "🙋": 1326,
      "🙌": 1327,
      "🙍": 1328,
      "🙎": 1329,
      "🙏": 1330,
      "🚀": 1331,
      "🚁": 1332,
      "🚌": 1333,
      "🚐": 1334,
      "🚔": 1335,
      "🚕": 1336,
      "🚖": 1337,
      "🚗": 1338,
      "🚘": 1339,
      "🚙": 1340,
      "🚚": 1341,
      "🚜": 1342,
      "🚢": 1343,
      "🚨": 1344,
      "🚩": 1345,
      "🚪": 1346,
      "🚫": 1347,
      "🚬": 1348,
      "🚭": 1349,
      "🚲": 1350,
      "🚴": 1351,
      "🚶": 1352,
      "🚷": 1353,
      "🚹": 1354,
      "🚺": 1355,
      "🚼": 1356,
      "🚽": 1357,
      "🛀": 1358,
      "🛁": 1359,
      "🛇": 1360,
      "🛌": 1361,
      "🛍": 1362,
      "🛏": 1363,
      "🛑": 1364,
      "🛒": 1365,
      "🛤": 1366,
      "🛥": 1367,
      "🛩": 1368,
      "🛫": 1369,
      "🛬": 1370,
      "🛳": 1371,
      "🛴": 1372,
      "🛵": 1373,
      "🛸": 1374,
      "🟠": 1375,
      "🟡": 1376,
      "🟢": 1377,
      "🟣": 1378,
      "🟤": 1379,
      "🟥": 1380,
      "🟦": 1381,
      "🟨": 1382,
      "🟩": 1383,
      "🟪": 1384,
      "🟫": 1385,
      "🤌": 1386,
      "🤍": 1387,
      "🤎": 1388,
      "🤏": 1389,
      "🤐": 1390,
      "🤑": 1391,
      "🤒": 1392,
      "🤓": 1393,
      "🤔": 1394,
      "🤕": 1395,
      "🤖": 1396,
      "🤗": 1397,
      "🤘": 1398,
      "🤙": 1399,
      "🤚": 1400,
      "🤛": 1401,
      "🤜": 1402,
      "🤝": 1403,
      "🤞": 1404,
      "🤟": 1405,
      "🤠": 1406,
      "🤡": 1407,
      "🤢": 1408,
      "🤣": 1409,
      "🤤": 1410,
      "🤥": 1411,
      "🤦": 1412,
      "🤧": 1413,
      "🤨": 1414,
      "🤩": 1415,
      "🤪": 1416,
      "🤫": 1417,
      "🤬": 1418,
      "🤭": 1419,
      "🤮": 1420,
      "🤯": 1421,
      "🤰": 1422,
      "🤱": 1423,
      "🤲": 1424,
      "🤳": 1425,
      "🤴": 1426,
      "🤵": 1427,
      "🤶": 1428,
      "🤷": 1429,
      "🤸": 1430,
      "🤺": 1431,
      "🤼": 1432,
      "🤽": 1433,
      "🤾": 1434,
      "🥀": 1435,
      "🥂": 1436,
      "🥃": 1437,
      "🥄": 1438,
      "🥇": 1439,
      "🥊": 1440,
      "🥐": 1441,
      "🥑": 1442,
      "🥒": 1443,
      "🥓": 1444,
      "🥔": 1445,
      "🥕": 1446,
      "🥖": 1447,
      "🥗": 1448,
      "🥘": 1449,
      "🥙": 1450,
      "🥚": 1451,
      "🥛": 1452,
      "🥝": 1453,
      "🥞": 1454,
      "🥟": 1455,
      "🥣": 1456,
      "🥥": 1457,
      "🥦": 1458,
      "🥧": 1459,
      "🥨": 1460,
      "🥩": 1461,
      "🥪": 1462,
      "🥫": 1463,
      "🥬": 1464,
      "🥭": 1465,
      "🥯": 1466,
      "🥰": 1467,
      "🥱": 1468,
      "🥲": 1469,
      "🥳": 1470,
      "🥴": 1471,
      "🥵": 1472,
      "🥶": 1473,
      "🥸": 1474,
      "🥹": 1475,
      "🥺": 1476,
      "🦀": 1477,
      "🦁": 1478,
      "🦃": 1479,
      "🦄": 1480,
      "🦅": 1481,
      "🦆": 1482,
      "🦉": 1483,
      "🦊": 1484,
      "🦋": 1485,
      "🦌": 1486,
      "🦍": 1487,
      "🦎": 1488,
      "🦏": 1489,
      "🦓": 1490,
      "🦔": 1491,
      "🦕": 1492,
      "🦖": 1493,
      "🦙": 1494,
      "🦚": 1495,
      "🦜": 1496,
      "🦝": 1497,
      "🦟": 1498,
      "🦣": 1499,
      "🦥": 1500,
      "🦦": 1501,
      "🦧": 1502,
      "🦯": 1503,
      "🦰": 1504,
      "🦱": 1505,
      "🦴": 1506,
      "🦶": 1507,
      "🦷": 1508,
      "🦺": 1509,
      "🦼": 1510,
      "🦽": 1511,
      "🦾": 1512,
      "🧀": 1513,
      "🧁": 1514,
      "🧂": 1515,
      "🧃": 1516,
      "🧄": 1517,
      "🧆": 1518,
      "🧇": 1519,
      "🧈": 1520,
      "🧊": 1521,
      "🧋": 1522,
      "🧍": 1523,
      "🧎": 1524,
      "🧏": 1525,
      "🧐": 1526,
      "🧑": 1527,
      "🧒": 1528,
      "🧔": 1529,
      "🧕": 1530,
      "🧖": 1531,
      "🧗": 1532,
      "🧘": 1533,
      "🧚": 1534,
      "🧛": 1535,
      "🧜": 1536,
      "🧝": 1537,
      "🧞": 1538,
      "🧟": 1539,
      "🧠": 1540,
      "🧡": 1541,
      "🧣": 1542,
      "🧥": 1543,
      "🧦": 1544,
      "🧨": 1545,
      "🧪": 1546,
      "🧫": 1547,
      "🧬": 1548,
      "🧯": 1549,
      "🧱": 1550,
      "🧴": 1551,
      "🧵": 1552,
      "🧶": 1553,
      "🧸": 1554,
      "🧹": 1555,
      "🧻": 1556,
      "🧼": 1557,
      "🧾": 1558,
      "🧿": 1559,
      "🨔": 1560,
      "🩱": 1561,
      "🩴": 1562,
      "🩸": 1563,
      "🩹": 1564,
      "🪅": 1565,
      "🪐": 1566,
      "🪓": 1567,
      "🪢": 1568,
      "🪣": 1569,
      "🪴": 1570,
      "🪵": 1571,
      "🫀": 1572,
      "🫂": 1573,
      "🫓": 1574,
      "🫠": 1575,
      "🫢": 1576,
      "🫣": 1577,
      "🫤": 1578,
      "🫥": 1579,
      "🫰": 1580,
      "🫴": 1581,
      "🫶": 1582,
      "##ب": 1583,
      "##و": 1584,
      "##ل": 1585,
      "##ی": 1586,
      "##ش": 1587,
      "##م": 1588,
      "##ر": 1589,
      "##د": 1590,
      "##پ": 1591,
      "##س": 1592,
      "##گ": 1593,
      "##ا": 1594,
      "##ه": 1595,
      "##ج": 1596,
      "##ک": 1597,
      "##‌": 1598,
      "##ز": 1599,
      "##ن": 1600,
      "##ت": 1601,
      "##ح": 1602,
      "##ص": 1603,
      "##ق": 1604,
      "##۳": 1605,
      "##۵": 1606,
      "##ف": 1607,
      "##😘": 1608,
      "##🌷": 1609,
      "##چ": 1610,
      "##ع": 1611,
      "##ط": 1612,
      "##خ": 1613,
      "##آ": 1614,
      "##ظ": 1615,
      "##ئ": 1616,
      "##۴": 1617,
      "##۸": 1618,
      "##🌹": 1619,
      "##🤔": 1620,
      "##🙁": 1621,
      "##😐": 1622,
      "##😑": 1623,
      "##ذ": 1624,
      "##😂": 1625,
      "##🤦": 1626,
      "##♀": 1627,
      "##ث": 1628,
      "##۷": 1629,
      "##۰": 1630,
      "##غ": 1631,
      "##😚": 1632,
      "##😆": 1633,
      "##🍬": 1634,
      "##😔": 1635,
      "##🖤": 1636,
      "##۱": 1637,
      "##😧": 1638,
      "##😨": 1639,
      "##ژ": 1640,
      "##۶": 1641,
      "##ؤ": 1642,
      "##ﻟ": 1643,
      "##ﺴ": 1644,
      "##ﻼ": 1645,
      "##ﻡ": 1646,
      "##۲": 1647,
      "##🙏": 1648,
      "##🤍": 1649,
      "##😶": 1650,
      "##😍": 1651,
      "##🐼": 1652,
      "##ة": 1653,
      "##ض": 1654,
      "##ى": 1655,
      "##😁": 1656,
      "##🤣": 1657,
      "##😄": 1658,
      "##😒": 1659,
      "##🥲": 1660,
      "##💔": 1661,
      "##ہ": 1662,
      "##🤰": 1663,
      "##🥺": 1664,
      "##🙆": 1665,
      "##🏻": 1666,
      "##😀": 1667,
      "##😊": 1668,
      "##🙌": 1669,
      "##😃": 1670,
      "##😙": 1671,
      "##👶": 1672,
      "##أ": 1673,
      "##❤": 1674,
      "##⚘": 1675,
      "##٣": 1676,
      "##🌺": 1677,
      "##😉": 1678,
      "##💕": 1679,
      "##🏳": 1680,
      "##😋": 1681,
      "##😅": 1682,
      "##😢": 1683,
      "##ے": 1684,
      "##🌸": 1685,
      "##😏": 1686,
      "##🤗": 1687,
      "##🏃": 1688,
      "##😇": 1689,
      "##👇": 1690,
      "##🤭": 1691,
      "##😱": 1692,
      "##😝": 1693,
      "##٨": 1694,
      "##😖": 1695,
      "##💋": 1696,
      "##😳": 1697,
      "##ﻨ": 1698,
      "##ﺎ": 1699,
      "##ﺧ": 1700,
      "##ﺘ": 1701,
      "##ﻪ": 1702,
      "##😤": 1703,
      "##═": 1704,
      "##😭": 1705,
      "##📽": 1706,
      "##🤐": 1707,
      "##✋": 1708,
      "##🏿": 1709,
      "##🔰": 1710,
      "##۹": 1711,
      "##🤯": 1712,
      "##😟": 1713,
      "##😥": 1714,
      "##🏽": 1715,
      "##🙄": 1716,
      "##🧐": 1717,
      "##ﺒ": 1718,
      "##ﺐ": 1719,
      "##💖": 1720,
      "##😌": 1721,
      "##💪": 1722,
      "##🧿": 1723,
      "##🌮": 1724,
      "##💚": 1725,
      "##🧡": 1726,
      "##💛": 1727,
      "##👌": 1728,
      "##ﺑ": 1729,
      "##ﺮ": 1730,
      "##💜": 1731,
      "##😓": 1732,
      "##🎂": 1733,
      "##🍰": 1734,
      "##🤨": 1735,
      "##🤪": 1736,
      "##،": 1737,
      "##؟": 1738,
      "##ء": 1739,
      "##🍫": 1740,
      "##ﯿ": 1741,
      "##ﺸ": 1742,
      "##⁦": 1743,
      "##☹": 1744,
      "##٠": 1745,
      "##🙊": 1746,
      "##ﺯ": 1747,
      "##😪": 1748,
      "##!": 1749,
      "##☺": 1750,
      "##💎": 1751,
      "##ﻴ": 1752,
      "##ﺕ": 1753,
      "##ٓ": 1754,
      "##😞": 1755,
      "##🚶": 1756,
      "##😎": 1757,
      "##🔪": 1758,
      "##😡": 1759,
      "##🤩": 1760,
      "##😰": 1761,
      "##ﻤ": 1762,
      "##ﻥ": 1763,
      "##✨": 1764,
      "##😕": 1765,
      "##😬": 1766,
      "##🥴": 1767,
      "##١": 1768,
      "##🙈": 1769,
      "##♥": 1770,
      "##٦": 1771,
      "##💫": 1772,
      "##😗": 1773,
      "##😹": 1774,
      "##👩": 1775,
      "##🦯": 1776,
      "##🤕": 1777,
      "##ﺩ": 1778,
      "##ﺍ": 1779,
      "##ﺵ": 1780,
      "##😦": 1781,
      "##😣": 1782,
      "##➿": 1783,
      "##😯": 1784,
      "##🤌": 1785,
      "##🍨": 1786,
      "##❌": 1787,
      "##🤲": 1788,
      "##🐮": 1789,
      "##🫴": 1790,
      "##📸": 1791,
      "##💙": 1792,
      "##ﺹ": 1793,
      "##⛷": 1794,
      "##ٔ": 1795,
      "##٤": 1796,
      "##٢": 1797,
      "##ﯾ": 1798,
      "##ﻘ": 1799,
      "##ﺶ": 1800,
      "##🍭": 1801,
      "##♂": 1802,
      "##😷": 1803,
      "##😮": 1804,
      "##ﺷ": 1805,
      "##✌": 1806,
      "##💞": 1807,
      "##💝": 1808,
      "##🏼": 1809,
      "##♡": 1810,
      "##🙃": 1811,
      "##🤢": 1812,
      "##🐣": 1813,
      "##🤝": 1814,
      "##🖖": 1815,
      "##😲": 1816,
      "##٥": 1817,
      "##🤤": 1818,
      "##⊙": 1819,
      "##◎": 1820,
      "##⁩": 1821,
      "##ە": 1822,
      "##🥰": 1823,
      "##٪": 1824,
      "##🐥": 1825,
      "##٧": 1826,
      "##😵": 1827,
      "##💃": 1828,
      "##ﺳ": 1829,
      "##ﻄ": 1830,
      "##ﻮ": 1831,
      "##ﺭ": 1832,
      "##ﻩ": 1833,
      "##ﻧ": 1834,
      "##ﺪ": 1835,
      "##🍓": 1836,
      "##💐": 1837,
      "##👫": 1838,
      "##🦋": 1839,
      "##🥕": 1840,
      "##🤏": 1841,
      "##🌿": 1842,
      "##🍉": 1843,
      "##❣": 1844,
      "##ﻠ": 1845,
      "##ﻍ": 1846,
      "##🙂": 1847,
      "##🤚": 1848,
      "##ﺲ": 1849,
      "##ﺼ": 1850,
      "##ﻑ": 1851,
      "##ھ": 1852,
      "##🥳": 1853,
      "##👍": 1854,
      "##👸": 1855,
      "##ﻭ": 1856,
      "##ﻱ": 1857,
      "##ﺨ": 1858,
      "##ﻫ": 1859,
      "##🔑": 1860,
      "##🔓": 1861,
      "##😠": 1862,
      "##٩": 1863,
      "##😈": 1864,
      "##ﺏ": 1865,
      "##🤑": 1866,
      "##😜": 1867,
      "##😛": 1868,
      "##🤓": 1869,
      "##😩": 1870,
      "##ﺟ": 1871,
      "##💏": 1872,
      "##🖼": 1873,
      "##👏": 1874,
      "##😫": 1875,
      "##👀": 1876,
      "##ﻛ": 1877,
      "##ﻣ": 1878,
      "##ﻔ": 1879,
      "##ﻦ": 1880,
      "##ﭼ": 1881,
      "##ﻬ": 1882,
      "##ﻞ": 1883,
      "##ﯽ": 1884,
      "##ﻓ": 1885,
      "##ﻳ": 1886,
      "##🫣": 1887,
      "##🤧": 1888,
      "##ﻲ": 1889,
      "##ᥬ": 1890,
      "##👋": 1891,
      "##🎉": 1892,
      "##💗": 1893,
      "##🕊": 1894,
      "##إ": 1895,
      "##☠": 1896,
      "##🎈": 1897,
      "##🎊": 1898,
      "##👿": 1899,
      "##💳": 1900,
      "##☝": 1901,
      "##ﮔ": 1902,
      "##☘": 1903,
      "##|": 1904,
      "##ﯼ": 1905,
      "##?": 1906,
      "##💟": 1907,
      "##🥀": 1908,
      "##🍃": 1909,
      "##🍒": 1910,
      "##💩": 1911,
      "##🤮": 1912,
      "##🍐": 1913,
      "##🍍": 1914,
      "##🥥": 1915,
      "##🥝": 1916,
      "##🌻": 1917,
      "##⚽": 1918,
      "##💥": 1919,
      "##ﻢ": 1920,
      "##🍈": 1921,
      "##🍊": 1922,
      "##🍋": 1923,
      "##🍌": 1924,
      "##🍑": 1925,
      "##🍏": 1926,
      "##🍎": 1927,
      "##🥭": 1928,
      "##🥦": 1929,
      "##🥬": 1930,
      "##🥒": 1931,
      "##🌽": 1932,
      "##🍗": 1933,
      "##🍲": 1934,
      "##🥘": 1935,
      "##🧃": 1936,
      "##🍵": 1937,
      "##☕": 1938,
      "##🍯": 1939,
      "##🍮": 1940,
      "##🧁": 1941,
      "##🥟": 1942,
      "##🍣": 1943,
      "##🍤": 1944,
      "##🥗": 1945,
      "##🧈": 1946,
      "##🥚": 1947,
      "##🍳": 1948,
      "##ڪ": 1949,
      "##ﷻ": 1950,
      "##😻": 1951,
      "##ﺖ": 1952,
      "##🍁": 1953,
      "##🔊": 1954,
      "##🟨": 1955,
      "##🟩": 1956,
      "##🟡": 1957,
      "##🍇": 1958,
      "##🍅": 1959,
      "##🌶": 1960,
      "##💺": 1961,
      "##🚽": 1962,
      "##ﮕ": 1963,
      "##🔺": 1964,
      "##🐧": 1965,
      "##ﻯ": 1966,
      "##😽": 1967,
      "##«": 1968,
      "##—": 1969,
      "##👺": 1970,
      "##🍂": 1971,
      "##👣": 1972,
      "##👹": 1973,
      "##💘": 1974,
      "##🙍": 1975,
      "##➻": 1976,
      "##🌀": 1977,
      "##ﻜ": 1978,
      "##😼": 1979,
      "##ڋ": 1980,
      "##🍷": 1981,
      "##🤷": 1982,
      "##🤥": 1983,
      "##✈": 1984,
      "##⇦": 1985,
      "##ﻂ": 1986,
      "##🙉": 1987,
      "##📌": 1988,
      "##ﻝ": 1989,
      "##👐": 1990,
      "##🦖": 1991,
      "##ﺗ": 1992,
      "##🎀": 1993,
      "##😴": 1994,
      "##ﺰ": 1995,
      "##🨔": 1996,
      "##💓": 1997,
      "##ۀ": 1998,
      "##🧱": 1999,
      "##🍀": 2000,
      "##🖐": 2001,
      "##؛": 2002,
      "##💊": 2003,
      "##👊": 2004,
      "##ﺃ": 2005,
      "##\"": 2006,
      "##🙇": 2007,
      "##🌈": 2008,
      "##ﺢ": 2009,
      "##🗿": 2010,
      "##ﺄ": 2011,
      "##ﻃ": 2012,
      "##☆": 2013,
      "##ڎ": 2014,
      "##🏾": 2015,
      "##🌼": 2016,
      "##🟢": 2017,
      "##🟠": 2018,
      "##🤫": 2019,
      "##》": 2020,
      "##👅": 2021,
      "##🤞": 2022,
      "##🌑": 2023,
      "##…": 2024,
      "##🐰": 2025,
      "##♫": 2026,
      "##♪": 2027,
      "##»": 2028,
      "##🥱": 2029,
      "##🦼": 2030,
      "##✖": 2031,
      "##ﮊ": 2032,
      "##🚬": 2033,
      "##\\": 2034,
      "##🌱": 2035,
      "##💯": 2036,
      "##🥵": 2037,
      "##ڟ": 2038,
      "##🦥": 2039,
      "##🖓": 2040,
      "##👻": 2041,
      "##🎁": 2042,
      "##ٰ": 2043,
      "##🦄": 2044,
      "##✔": 2045,
      "##🤒": 2046,
      "##ﺤ": 2047,
      "##🍸": 2048,
      "##🍪": 2049,
      "##🍴": 2050,
      "##🥄": 2051,
      "##🏺": 2052,
      "##🍽": 2053,
      "##😿": 2054,
      "##🐒": 2055,
      "##✊": 2056,
      "##�": 2057,
      "##🤬": 2058,
      "##ﻖ": 2059,
      "##🌴": 2060,
      "##ﮏ": 2061,
      "##👧": 2062,
      "##🕌": 2063,
      "##🔴": 2064,
      "##👠": 2065,
      "##👡": 2066,
      "##👢": 2067,
      "##👚": 2068,
      "##👗": 2069,
      "##👖": 2070,
      "##👜": 2071,
      "##👒": 2072,
      "##👙": 2073,
      "##👛": 2074,
      "##ﺻ": 2075,
      "##⚪": 2076,
      "##🟣": 2077,
      "##ﮑ": 2078,
      "##🐀": 2079,
      "##ﻰ": 2080,
      "##🧕": 2081,
      "##💨": 2082,
      "##💀": 2083,
      "##ﺔ": 2084,
      "##📷": 2085,
      "##✍": 2086,
      "##ﻗ": 2087,
      "##ﻊ": 2088,
      "##👉": 2089,
      "##ﺽ": 2090,
      "##ﻻ": 2091,
      "##🤙": 2092,
      "##️": 2093,
      "##ﺁ": 2094,
      "##📚": 2095,
      "##🔹": 2096,
      "##🖇": 2097,
      "##📢": 2098,
      "##🙋": 2099,
      "##🛑": 2100,
      "##🔆": 2101,
      "##👆": 2102,
      "##ٸ": 2103,
      "##🦶": 2104,
      "##ٱ": 2105,
      "##💦": 2106,
      "##ﻌ": 2107,
      "##ﻒ": 2108,
      "##💱": 2109,
      "##💲": 2110,
      "##•": 2111,
      "##🔫": 2112,
      "##🤘": 2113,
      "##🤵": 2114,
      "##🧑": 2115,
      "##>": 2116,
      "##💉": 2117,
      "##🔥": 2118,
      "##❗": 2119,
      "##●": 2120,
      "##💵": 2121,
      "##💰": 2122,
      "##ﺝ": 2123,
      "##🍆": 2124,
      "##👽": 2125,
      "##🔻": 2126,
      "##🦺": 2127,
      "##🦊": 2128,
      "##🐺": 2129,
      "##🐩": 2130,
      "##🐈": 2131,
      "##🦝": 2132,
      "##⬛": 2133,
      "##🐎": 2134,
      "##🐃": 2135,
      "##🐅": 2136,
      "##🐷": 2137,
      "##🐯": 2138,
      "##🐄": 2139,
      "##🦓": 2140,
      "##🦌": 2141,
      "##🦣": 2142,
      "##🦏": 2143,
      "##🐑": 2144,
      "##🦙": 2145,
      "##🐏": 2146,
      "##◉": 2147,
      "##ﮤ": 2148,
      "##💣": 2149,
      "##👼": 2150,
      "##🗃": 2151,
      "##‹": 2152,
      "##༎": 2153,
      "##ﮓ": 2154,
      "##🎧": 2155,
      "##ᵐ": 2156,
      "##ᵖ": 2157,
      "##ᵒ": 2158,
      "##ʳ": 2159,
      "##ᵗ": 2160,
      "##ᵃ": 2161,
      "##ⁿ": 2162,
      "##👭": 2163,
      "##💭": 2164,
      "##💧": 2165,
      "##ﻚ": 2166,
      "##₪": 2167,
      "##⤴": 2168,
      "##👑": 2169,
      "##🥇": 2170,
      "##🍹": 2171,
      "##🎷": 2172,
      "##🎺": 2173,
      "##🎶": 2174,
      "##🎵": 2175,
      "##🎼": 2176,
      "##🎤": 2177,
      "##🐁": 2178,
      "##ڽ": 2179,
      "##💸": 2180,
      "##🌅": 2181,
      "##🫂": 2182,
      "##🎇": 2183,
      "##🎆": 2184,
      "##⃣": 2185,
      "##ﺋ": 2186,
      "##ᵉ": 2187,
      "##ﭻ": 2188,
      "##ℎ": 2189,
      "##𝑒": 2190,
      "##💄": 2191,
      "##🩱": 2192,
      "##💅": 2193,
      "##👄": 2194,
      "##☀": 2195,
      "##ﻋ": 2196,
      "##ﺚ": 2197,
      "##🍞": 2198,
      "##⛱": 2199,
      "##🔞": 2200,
      "##🐹": 2201,
      "##🖕": 2202,
      "##ﮐ": 2203,
      "##ﺓ": 2204,
      "##🏡": 2205,
      "##🌟": 2206,
      "##📿": 2207,
      "##💶": 2208,
      "##٫": 2209,
      "##🤎": 2210,
      "##🌙": 2211,
      "##🐜": 2212,
      "##🐴": 2213,
      "##🍜": 2214,
      "##🛴": 2215,
      "##🛩": 2216,
      "##🍼": 2217,
      "##🥶": 2218,
      "##✅": 2219,
      "##ﺱ": 2220,
      "##ﻵ": 2221,
      "##🥣": 2222,
      "##✷": 2223,
      "##⚫": 2224,
      "##𝑡": 2225,
      "##𝑖": 2226,
      "##𝑙": 2227,
      "##🐟": 2228,
      "##👎": 2229,
      "##🚔": 2230,
      "##🐔": 2231,
      "##👪": 2232,
      "##ﺬ": 2233,
      "##❈": 2234,
      "##❅": 2235,
      "##ڗ": 2236,
      "##ں": 2237,
      "##🐾": 2238,
      "##👰": 2239,
      "##🦽": 2240,
      "##🔸": 2241,
      "##💑": 2242,
      "##ﺞ": 2243,
      "##ﭙ": 2244,
      "##☻": 2245,
      "##🧸": 2246,
      "##ﺣ": 2247,
      "##ﮒ": 2248,
      "##؜": 2249,
      "##ʰ": 2250,
      "##🍕": 2251,
      "##╯": 2252,
      "##°": 2253,
      "##□": 2254,
      "##）": 2255,
      "##︵": 2256,
      "##👈": 2257,
      "##🆔": 2258,
      "##🐕": 2259,
      "##👯": 2260,
      "##⭐": 2261,
      "##٬": 2262,
      "##ڛ": 2263,
      "##ێ": 2264,
      "##👁": 2265,
      "##💁": 2266,
      "##💌": 2267,
      "##☄": 2268,
      "##🏵": 2269,
      "##‎": 2270,
      "##ˢ": 2271,
      "##📣": 2272,
      "##👨": 2273,
      "##👟": 2274,
      "##🔵": 2275,
      "##⛏": 2276,
      "##🗡": 2277,
      "##⚰": 2278,
      "##›": 2279,
      "##🦾": 2280,
      "##ݝ": 2281,
      "##❎": 2282,
      "##📱": 2283,
      "##ݪ": 2284,
      "##ﺡ": 2285,
      "##🍩": 2286,
      "##🥧": 2287,
      "##🥛": 2288,
      "##💢": 2289,
      "##🙀": 2290,
      "##🌠": 2291,
      "##🧯": 2292,
      "##🦧": 2293,
      "##🐌": 2294,
      "##ࢪ": 2295,
      "##ﭽ": 2296,
      "##👦": 2297,
      "##🍔": 2298,
      "##🍟": 2299,
      "##🌭": 2300,
      "##🎨": 2301,
      "##🎹": 2302,
      "##🖥": 2303,
      "##📗": 2304,
      "##📘": 2305,
      "##📙": 2306,
      "##📔": 2307,
      "##📕": 2308,
      "##☔": 2309,
      "##🌊": 2310,
      "##ﺠ": 2311,
      "##ۆ": 2312,
      "##🌛": 2313,
      "##ٕ": 2314,
      "##❄": 2315,
      "##⭕": 2316,
      "##~": 2317,
      "##۔": 2318,
      "##🤸": 2319,
      "##🐭": 2320,
      "##☁": 2321,
      "##🏅": 2322,
      "##🏆": 2323,
      "##🥔": 2324,
      "##💍": 2325,
      "##👝": 2326,
      "##⛑": 2327,
      "##🛬": 2328,
      "##🛫": 2329,
      "##ﻈ": 2330,
      "##🤠": 2331,
      "##🏋": 2332,
      "##🖑": 2333,
      "##⚡": 2334,
      "##🪓": 2335,
      "##ﻐ": 2336,
      "##🔉": 2337,
      "##ﺿ": 2338,
      "##✒": 2339,
      "##ﻏ": 2340,
      "##🖒": 2341,
      "##ﭘ": 2342,
      "##🚘": 2343,
      "##🩴": 2344,
      "##💮": 2345,
      "##🚫": 2346,
      "##🤟": 2347,
      "##🪴": 2348,
      "##🏰": 2349,
      "##🏠": 2350,
      "##ﺂ": 2351,
      "##ç": 2352,
      "##🧀": 2353,
      "##🚴": 2354,
      "##🃏": 2355,
      "##🌚": 2356,
      "##ﻁ": 2357,
      "##ټ": 2358,
      "##🧋": 2359,
      "##😺": 2360,
      "##⁴": 2361,
      "##ó": 2362,
      "##ಠ": 2363,
      "##ā": 2364,
      "##🧚": 2365,
      "##🍖": 2366,
      "##⚀": 2367,
      "##⛔": 2368,
      "##👵": 2369,
      "##↯": 2370,
      "##🌧": 2371,
      "##🧖": 2372,
      "##🛀": 2373,
      "##🛌": 2374,
      "##🕴": 2375,
      "##👷": 2376,
      "##⛓": 2377,
      "##〰": 2378,
      "##▂": 2379,
      "##▄": 2380,
      "##▅": 2381,
      "##▆": 2382,
      "##▇": 2383,
      "##█": 2384,
      "##ګ": 2385,
      "##♠": 2386,
      "##ʚ": 2387,
      "##⚕": 2388,
      "##⚠": 2389,
      "##😸": 2390,
      "##🎃": 2391,
      "##🔌": 2392,
      "##ﻆ": 2393,
      "##ڌ": 2394,
      "##ﺥ": 2395,
      "##🧎": 2396,
      "##🥖": 2397,
      "##√": 2398,
      "##🦱": 2399,
      "##📧": 2400,
      "##🕯": 2401,
      "##🌲": 2402,
      "##🍦": 2403,
      "##🍡": 2404,
      "##🍧": 2405,
      "##🏩": 2406,
      "##🌞": 2407,
      "##☂": 2408,
      "##🔮": 2409,
      "##ﺺ": 2410,
      "##ڑ": 2411,
      "##￣": 2412,
      "##︶": 2413,
      "##✂": 2414,
      "##🧻": 2415,
      "##×": 2416,
      "##🐨": 2417,
      "##🦰": 2418,
      "##👱": 2419,
      "##ڠ": 2420,
      "##🚲": 2421,
      "##ﺀ": 2422,
      "##─": 2423,
      "##┤": 2424,
      "##𝐞": 2425,
      "##𝐬": 2426,
      "##𝐩": 2427,
      "##𝐨": 2428,
      "##𝐧": 2429,
      "##𝐢": 2430,
      "##𝐛": 2431,
      "##𝐥": 2432,
      "##🌫": 2433,
      "##🌾": 2434,
      "##🐆": 2435,
      "##🕸": 2436,
      "##🥹": 2437,
      "##⚔": 2438,
      "##𝒊": 2439,
      "##𝒗": 2440,
      "##𝒆": 2441,
      "##𝒔": 2442,
      "##🙅": 2443,
      "##🥫": 2444,
      "##🍚": 2445,
      "##🍝": 2446,
      "##ᴗ": 2447,
      "##ʘ": 2448,
      "##🦉": 2449,
      "##📖": 2450,
      "##🔎": 2451,
      "##📋": 2452,
      "##ᕕ": 2453,
      "##🤛": 2454,
      "##🍻": 2455,
      "##🍥": 2456,
      "##👂": 2457,
      "##🌌": 2458,
      "##ᵏ": 2459,
      "##🧟": 2460,
      "##🔷": 2461,
      "##🦁": 2462,
      "##🥞": 2463,
      "##🐛": 2464,
      "##🐘": 2465,
      "##🧗": 2466,
      "##🏫": 2467,
      "##'": 2468,
      "##🪐": 2469,
      "##🐶": 2470,
      "##🕳": 2471,
      "##💆": 2472,
      "##🤖": 2473,
      "##𝖔": 2474,
      "##𝖕": 2475,
      "##𝖒": 2476,
      "##𝖚": 2477,
      "##𝖘": 2478,
      "##𝖎": 2479,
      "##𝖈": 2480,
      "##𝖐": 2481,
      "##𝖍": 2482,
      "##𝖆": 2483,
      "##ʖ": 2484,
      "##👬": 2485,
      "##🐽": 2486,
      "##🌝": 2487,
      "##🕪": 2488,
      "##♦": 2489,
      "##🥃": 2490,
      "##｡": 2491,
      "##🔨": 2492,
      "##¿": 2493,
      "##❓": 2494,
      "##‏": 2495,
      "##🍢": 2496,
      "##ۓ": 2497,
      "##ꔷ": 2498,
      "##͜": 2499,
      "##✿": 2500,
      "##ⁱ": 2501,
      "##‿": 2502,
      "##ಥ": 2503,
      "##ﻉ": 2504,
      "##⇩": 2505,
      "##🕷": 2506,
      "##🐝": 2507,
      "##↩": 2508,
      "##💡": 2509,
      "##𓆩": 2510,
      "##👮": 2511,
      "##🐙": 2512,
      "##🍠": 2513,
      "##🎸": 2514,
      "##ﭗ": 2515,
      "##᯽": 2516,
      "##⊱": 2517,
      "##┈": 2518,
      "##❊": 2519,
      "##⊰": 2520,
      "##🕺": 2521,
      "##🏴": 2522,
      "##ˡ": 2523,
      "##ᵍ": 2524,
      "##ۉ": 2525,
      "##ﻙ": 2526,
      "##🟪": 2527,
      "##🇮": 2528,
      "##🇷": 2529,
      "##🧂": 2530,
      "##♻": 2531,
      "##ډ": 2532,
      "##💠": 2533,
      "##🥂": 2534,
      "##🐪": 2535,
      "##🏹": 2536,
      "##♕": 2537,
      "##𝐚": 2538,
      "##😾": 2539,
      "##🎓": 2540,
      "##🚀": 2541,
      "##🤺": 2542,
      "##𝐮": 2543,
      "##𝐫": 2544,
      "##┄": 2545,
      "##┅": 2546,
      "##📍": 2547,
      "##🥸": 2548,
      "##‪": 2549,
      "##🗣": 2550,
      "##《": 2551,
      "##ʸ": 2552,
      "##🧜": 2553,
      "##¯": 2554,
      "##༼": 2555,
      "##➷": 2556,
      "##🥩": 2557,
      "##🚼": 2558,
      "##👃": 2559,
      "##ۻ": 2560,
      "##🚨": 2561,
      "##ﺾ": 2562,
      "##🏕": 2563,
      "##⬅": 2564,
      "##❦": 2565,
      "##🌳": 2566,
      "##◕": 2567,
      "##🏝": 2568,
      "##🥊": 2569,
      "##ڔ": 2570,
      "##ٺ": 2571,
      "##🕧": 2572,
      "##🕐": 2573,
      "##🕜": 2574,
      "##🕑": 2575,
      "##🍄": 2576,
      "##🔶": 2577,
      "##🕵": 2578,
      "##📹": 2579,
      "##→": 2580,
      "##𝐡": 2581,
      "##ﮎ": 2582,
      "##𝒂": 2583,
      "##𝒓": 2584,
      "##𝒅": 2585,
      "##𝒉": 2586,
      "##𝒑": 2587,
      "##🏔": 2588,
      "##²": 2589,
      "##料": 2590,
      "##で": 2591,
      "##タ": 2592,
      "##イ": 2593,
      "##ピ": 2594,
      "##ン": 2595,
      "##グ": 2596,
      "##練": 2597,
      "##習": 2598,
      "##🎏": 2599,
      "##⛄": 2600,
      "##🌏": 2601,
      "##🐐": 2602,
      "##𝐯": 2603,
      "##𝘀": 2604,
      "##𝗵": 2605,
      "##𝗺": 2606,
      "##𝗮": 2607,
      "##🕩": 2608,
      "##🆘": 2609,
      "##💇": 2610,
      "##🎱": 2611,
      "##🎳": 2612,
      "##﷽": 2613,
      "##𝒏": 2614,
      "##🗯": 2615,
      "##⛅": 2616,
      "##🤡": 2617,
      "##💼": 2618,
      "##🦦": 2619,
      "##⬇": 2620,
      "##↘": 2621,
      "##🐓": 2622,
      "##🏂": 2623,
      "##ﻇ": 2624,
      "##🧄": 2625,
      "##🥐": 2626,
      "##🏞": 2627,
      "##𝑠": 2628,
      "##ᵘ": 2629,
      "##ᶜ": 2630,
      "##🔔": 2631,
      "##ᵈ": 2632,
      "##🤜": 2633,
      "##🐦": 2634,
      "##🏇": 2635,
      "##📛": 2636,
      "##⚜": 2637,
      "##ٹ": 2638,
      "##ﭺ": 2639,
      "##🧶": 2640,
      "##👾": 2641,
      "##🇹": 2642,
      "##ڙ": 2643,
      "##🛳": 2644,
      "##🛥": 2645,
      "##━": 2646,
      "##┻": 2647,
      "##🧹": 2648,
      "##ヅ": 2649,
      "##🗼": 2650,
      "##🥙": 2651,
      "##🛏": 2652,
      "##💤": 2653,
      "##🚪": 2654,
      "##🟤": 2655,
      "##🟫": 2656,
      "##🚌": 2657,
      "##🏨": 2658,
      "##♊": 2659,
      "##♍": 2660,
      "##♑": 2661,
      "##♎": 2662,
      "##♋": 2663,
      "##♌": 2664,
      "##🤴": 2665,
      "##🎋": 2666,
      "##⇝": 2667,
      "##🍛": 2668,
      "##ᵛ": 2669,
      "##💷": 2670,
      "##ٲ": 2671,
      "##📞": 2672,
      "##€": 2673,
      "##🌎": 2674,
      "##🌕": 2675,
      "##ﺫ": 2676,
      "##∞": 2677,
      "##🧠": 2678,
      "##🚚": 2679,
      "##🫠": 2680,
      "##🦴": 2681,
      "##❕": 2682,
      "##🍶": 2683,
      "##🐤": 2684,
      "##🦃": 2685,
      "##ݦ": 2686,
      "##🎖": 2687,
      "##𝐭": 2688,
      "##🇸": 2689,
      "##🇺": 2690,
      "##▁": 2691,
      "##ڐ": 2692,
      "##☑": 2693,
      "##🥑": 2694,
      "##🇰": 2695,
      "##ﻕ": 2696,
      "##ı": 2697,
      "##๑": 2698,
      "##📝": 2699,
      "##ý": 2700,
      "##🌵": 2701,
      "##⛴": 2702,
      "##🚢": 2703,
      "##🧞": 2704,
      "##ﭖ": 2705,
      "##ۍ": 2706,
      "##🦜": 2707,
      "##🅾": 2708,
      "##🏁": 2709,
      "##⏳": 2710,
      "##🚜": 2711,
      "##ﻀ": 2712,
      "##♬": 2713,
      "##♭": 2714,
      "##⊂": 2715,
      "##ۂ": 2716,
      "##🧨": 2717,
      "##𝒇": 2718,
      "##𝒕": 2719,
      "##🫰": 2720,
      "##🛍": 2721,
      "##🕶": 2722,
      "##🧘": 2723,
      "##🎄": 2724,
      "##ü": 2725,
      "##𝐜": 2726,
      "##𝐤": 2727,
      "##🛵": 2728,
      "##𝑎": 2729,
      "##𝑝": 2730,
      "##𝑛": 2731,
      "##ﺦ": 2732,
      "##–": 2733,
      "##🛸": 2734,
      "##📯": 2735,
      "##♩": 2736,
      "##🎻": 2737,
      "##🩹": 2738,
      "##❧": 2739,
      "##❥": 2740,
      "##ݭ": 2741,
      "##ﺆ": 2742,
      "##ٙ": 2743,
      "##𝑘": 2744,
      "##ڄ": 2745,
      "##🌯": 2746,
      "##🌰": 2747,
      "##🚕": 2748,
      "##☎": 2749,
      "##❀": 2750,
      "##🎥": 2751,
      "##🎬": 2752,
      "##📺": 2753,
      "##🖊": 2754,
      "##¡": 2755,
      "##🦆": 2756,
      "##아": 2757,
      "##🌋": 2758,
      "##🔍": 2759,
      "##🦅": 2760,
      "##🔬": 2761,
      "##➖": 2762,
      "##🍱": 2763,
      "##📒": 2764,
      "##🐇": 2765,
      "##✵": 2766,
      "##╮": 2767,
      "##☃": 2768,
      "##🗻": 2769,
      "##🫤": 2770,
      "##✴": 2771,
      "##ڭ": 2772,
      "##🚷": 2773,
      "##ﺛ": 2774,
      "##🐫": 2775,
      "##🐠": 2776,
      "##ş": 2777,
      "##🗾": 2778,
      "##฿": 2779,
      "##♣": 2780,
      "##ڕ": 2781,
      "##𝐝": 2782,
      "##🐢": 2783,
      "##𝒐": 2784,
      "##👘": 2785,
      "##ɞ": 2786,
      "##ू": 2787,
      "##✾": 2788,
      "##✰": 2789,
      "##✧": 2790,
      "##🔇": 2791,
      "##・": 2792,
      "##🕋": 2793,
      "##🛤": 2794,
      "##🚙": 2795,
      "##🚗": 2796,
      "##🚐": 2797,
      "##˘": 2798,
      "##✏": 2799,
      "##📑": 2800,
      "##☇": 2801,
      "###": 2802,
      "##🌒": 2803,
      "##◔": 2804,
      "##🎴": 2805,
      "##ٵ": 2806,
      "##🤱": 2807,
      "##🎅": 2808,
      "##🔧": 2809,
      "##랑": 2810,
      "##해": 2811,
      "##ﺜ": 2812,
      "##🛒": 2813,
      "##🐵": 2814,
      "##🙎": 2815,
      "##💂": 2816,
      "##👳": 2817,
      "##🦕": 2818,
      "##ڵ": 2819,
      "##🧬": 2820,
      "##🥨": 2821,
      "##🫓": 2822,
      "##🧇": 2823,
      "##🥯": 2824,
      "##🌨": 2825,
      "##🤳": 2826,
      "##﷼": 2827,
      "##£": 2828,
      "##÷": 2829,
      "##ٻ": 2830,
      "##＾": 2831,
      "##👔": 2832,
      "##👕": 2833,
      "##🧣": 2834,
      "##🧛": 2835,
      "##🫥": 2836,
      "##𝑢": 2837,
      "##🍺": 2838,
      "##◀": 2839,
      "##🔗": 2840,
      "##🇶": 2841,
      "##🎗": 2842,
      "##🚩": 2843,
      "##🏓": 2844,
      "##🔼": 2845,
      "##ﮋ": 2846,
      "##🔐": 2847,
      "##⬜": 2848,
      "##𝒖": 2849,
      "##🧆": 2850,
      "##🥪": 2851,
      "##𝐰": 2852,
      "##🎍": 2853,
      "##ڹ": 2854,
      "##🧝": 2855,
      "##★": 2856,
      "##ღ": 2857,
      "##🫀": 2858,
      "##‼": 2859,
      "##𝑥": 2860,
      "##シ": 2861,
      "##🦷": 2862,
      "##🧪": 2863,
      "##🪣": 2864,
      "##📜": 2865,
      "##💹": 2866,
      "##ڀ": 2867,
      "##📦": 2868,
      "##여": 2869,
      "##상": 2870,
      "##「": 2871,
      "##⇜": 2872,
      "##🩸": 2873,
      "##🐻": 2874,
      "##⁉": 2875,
      "##ٮ": 2876,
      "##ار": 2877,
      "##ون": 2878,
      "می": 2879,
      "##ین": 2880,
      "##ای": 2881,
      "##ست": 2882,
      "##ان": 2883,
      "##اد": 2884,
      "##رد": 2885,
      "با": 2886,
      "##ام": 2887,
      "##ید": 2888,
      "##ود": 2889,
      "##لی": 2890,
      "##": 2891,
      "##رم": 2892,
      "من": 2893,
      "هم": 2894,
      "##ال": 2895,
      "به": 2896,
      "##فت": 2897,
      "از": 2898,
      "##اش": 2899,
      "کن": 2900,
      "##ری": 2901,
      "این": 2902,
      "رو": 2903,
      "##شه": 2904,
      "خو": 2905,
      "که": 2906,
      "تو": 2907,
      "##یم": 2908,
      "دار": 2909,
      "##اه": 2910,
      "##کن": 2911,
      "بر": 2912,
      "##تر": 2913,
      "##ند": 2914,
      "##می": 2915,
      "##لا": 2916,
      "##گه": 2917,
      "##وه": 2918,
      "بی": 2919,
      "دو": 2920,
      "##ده": 2921,
      "کرد": 2922,
      "##ره": 2923,
      "بود": 2924,
      "##تون": 2925,
      "خی": 2926,
      "##اب": 2927,
      "##گی": 2928,
      "##خو": 2929,
      "چی": 2930,
      "در": 2931,
      "##دم": 2932,
      "##رو": 2933,
      "یه": 2934,
      "##ما": 2935,
      "میکن": 2936,
      "نمی": 2937,
      "##زی": 2938,
      "خیلی": 2939,
      "تا": 2940,
      "خود": 2941,
      "نی": 2942,
      "##دار": 2943,
      "شوه": 2944,
      "##تی": 2945,
      "بچ": 2946,
      "##اس": 2947,
      "دی": 2948,
      "ال": 2949,
      "##وم": 2950,
      "##اشت": 2951,
      "##ونه": 2952,
      "##سی": 2953,
      "ولی": 2954,
      "##ول": 2955,
      "##را": 2956,
      "گفت": 2957,
      "##شم": 2958,
      "اون": 2959,
      "##ها": 2960,
      "##ه‌": 2961,
      "##ور": 2962,
      "بع": 2963,
      "بد": 2964,
      "##دا": 2965,
      "خوب": 2966,
      "ان": 2967,
      "یا": 2968,
      "##رش": 2969,
      "##ایی": 2970,
      "کار": 2971,
      "##زم": 2972,
      "##اید": 2973,
      "##زن": 2974,
      "یک": 2975,
      "شد": 2976,
      "هست": 2977,
      "##رف": 2978,
      "میشه": 2979,
      "##خت": 2980,
      "کنم": 2981,
      "##یش": 2982,
      "بعد": 2983,
      "داره": 2984,
      "میخو": 2985,
      "##ونم": 2986,
      "##اا": 2987,
      "خان": 2988,
      "##یر": 2989,
      "##شت": 2990,
      "بگ": 2991,
      "شوهرم": 2992,
      "سال": 2993,
      "پس": 2994,
      "کم": 2995,
      "دارم": 2996,
      "##قد": 2997,
      "ندار": 2998,
      "ام": 2999,
      "##لم": 3000,
      "الان": 3001,
      "هر": 3002,
      "##رفت": 3003,
      "دیگه": 3004,
      "##یک": 3005,
      "##هم": 3006,
      "داد": 3007,
      "##یا": 3008,
      "##شک": 3009,
      "میگ": 3010,
      "دوست": 3011,
      "##وری": 3012,
      "##کار": 3013,
      "داشت": 3014,
      "##اق": 3015,
      "##سم": 3016,
      "رفت": 3017,
      "##شون": 3018,
      "باشه": 3019,
      "##یه": 3020,
      "؟؟": 3021,
      "حال": 3022,
      "##یی": 3023,
      "عزی": 3024,
      "##قط": 3025,
      "##زه": 3026,
      "##شن": 3027,
      "بچه": 3028,
      "##است": 3029,
      "بخ": 3030,
      "بار": 3031,
      "نه": 3032,
      "منم": 3033,
      "برای": 3034,
      "چه": 3035,
      "نیست": 3036,
      "##کس": 3037,
      "##یدم": 3038,
      "##له": 3039,
      "ماد": 3040,
      "##ات": 3041,
      "مو": 3042,
      "بب": 3043,
      "کردم": 3044,
      "خونه": 3045,
      "##اده": 3046,
      "شده": 3047,
      "##زار": 3048,
      "وق": 3049,
      "اص": 3050,
      "خودم": 3051,
      "هی": 3052,
      "##بت": 3053,
      "فقط": 3054,
      "اگه": 3055,
      "سر": 3056,
      "است": 3057,
      "##که": 3058,
      "زن": 3059,
      "نم": 3060,
      "##کرد": 3061,
      "شما": 3062,
      "همه": 3063,
      "##شو": 3064,
      "چند": 3065,
      "دست": 3066,
      "##رت": 3067,
      "دخ": 3068,
      "##نی": 3069,
      "##وا": 3070,
      "##عا": 3071,
      "باید": 3072,
      "##لام": 3073,
      "میکنم": 3074,
      "عزیزم": 3075,
      "##لو": 3076,
      "##رب": 3077,
      "##های": 3078,
      "دختر": 3079,
      "مث": 3080,
      "##ظر": 3081,
      "میکنه": 3082,
      "ماه": 3083,
      "##وش": 3084,
      "زند": 3085,
      "گرفت": 3086,
      "روز": 3087,
      "##اره": 3088,
      "خدا": 3089,
      "##رس": 3090,
      "کسی": 3091,
      "چرا": 3092,
      "##من": 3093,
      "مید": 3094,
      "##گر": 3095,
      "را": 3096,
      "پیش": 3097,
      "ما": 3098,
      "دک": 3099,
      "سلام": 3100,
      "##جا": 3101,
      "هیچ": 3102,
      "فک": 3103,
      "##حت": 3104,
      "خواه": 3105,
      "مام": 3106,
      "زی": 3107,
      "##این": 3108,
      "اصلا": 3109,
      "حرف": 3110,
      "نب": 3111,
      "بگی": 3112,
      "حس": 3113,
      "##یت": 3114,
      "نمید": 3115,
      "چون": 3116,
      "عکس": 3117,
      "مامان": 3118,
      "میگه": 3119,
      "کنه": 3120,
      "قب": 3121,
      "واس": 3122,
      "مع": 3123,
      "##رون": 3124,
      "##ه‌ها": 3125,
      "بده": 3126,
      "خر": 3127,
      "##تو": 3128,
      "بهش": 3129,
      "شدم": 3130,
      "باش": 3131,
      "دکتر": 3132,
      "##اط": 3133,
      "اوم": 3134,
      "همین": 3135,
      "خوش": 3136,
      "بهم": 3137,
      "ند": 3138,
      "خانو": 3139,
      "اول": 3140,
      "واق": 3141,
      "##روز": 3142,
      "##اری": 3143,
      "کنید": 3144,
      "زندگی": 3145,
      "بزن": 3146,
      "اما": 3147,
      "گفتم": 3148,
      "##نگ": 3149,
      "کرده": 3150,
      "##مم": 3151,
      "اخ": 3152,
      "درست": 3153,
      "می‌": 3154,
      "کی": 3155,
      "##از": 3156,
      "؟؟؟": 3157,
      "حالا": 3158,
      "نظر": 3159,
      "##وی": 3160,
      "بخو": 3161,
      "##فته": 3162,
      "##بی": 3163,
      "خون": 3164,
      "برا": 3165,
      "##کی": 3166,
      "##مو": 3167,
      "باردار": 3168,
      "##جوری": 3169,
      "همس": 3170,
      "##فا": 3171,
      "شوهر": 3172,
      "ببین": 3173,
      "##انی": 3174,
      "مشک": 3175,
      "##عت": 3176,
      "##قدر": 3177,
      "دل": 3178,
      "جو": 3179,
      "##سال": 3180,
      "##کنه": 3181,
      "##ردم": 3182,
      "سو": 3183,
      "##قی": 3184,
      "میخ": 3185,
      "نداره": 3186,
      "خب": 3187,
      "کو": 3188,
      "باب": 3189,
      "مد": 3190,
      "##نم": 3191,
      "چیکار": 3192,
      "واقعا": 3193,
      "دلم": 3194,
      "وقتی": 3195,
      "پی": 3196,
      "ازد": 3197,
      "راه": 3198,
      "شب": 3199,
      "##انه": 3200,
      "بشه": 3201,
      "##رشوه": 3202,
      "یکی": 3203,
      "شک": 3204,
      "##هر": 3205,
      "##تا": 3206,
      "بچه‌ها": 3207,
      "##واج": 3208,
      "بودم": 3209,
      "مر": 3210,
      "درد": 3211,
      "نگ": 3212,
      "##فر": 3213,
      "واسه": 3214,
      "سا": 3215,
      "##رز": 3216,
      "خوبه": 3217,
      "ازدواج": 3218,
      "زیاد": 3219,
      "##نو": 3220,
      "مح": 3221,
      "##‌ها": 3222,
      "اینکه": 3223,
      "بیاین": 3224,
      "لط": 3225,
      "##‌های": 3226,
      "میزن": 3227,
      "##به": 3228,
      "کمک": 3229,
      "##ارم": 3230,
      "کلا": 3231,
      "میاد": 3232,
      "برم": 3233,
      "نمیدونم": 3234,
      "ندارم": 3235,
      "نش": 3236,
      "میکرد": 3237,
      "قر": 3238,
      "پسر": 3239,
      "##ریم": 3240,
      "بیش": 3241,
      "بهتر": 3242,
      "##زد": 3243,
      "میخوام": 3244,
      "دع": 3245,
      "پول": 3246,
      "مت": 3247,
      "##لاق": 3248,
      "##زر": 3249,
      "##عی": 3250,
      "کردن": 3251,
      "فکر": 3252,
      "##عنی": 3253,
      "##الی": 3254,
      "##ضی": 3255,
      "##😂😂": 3256,
      "##رده": 3257,
      "خودش": 3258,
      "##شی": 3259,
      "چیزی": 3260,
      "اسم": 3261,
      "او": 3262,
      "میگی": 3263,
      "چیه": 3264,
      "##ونی": 3265,
      "##یده": 3266,
      "بن": 3267,
      "##مان": 3268,
      "اس": 3269,
      "##ایت": 3270,
      "گذ": 3271,
      "یعنی": 3272,
      "##نه": 3273,
      "لب": 3274,
      "پد": 3275,
      "##مه": 3276,
      "همش": 3277,
      "##پیک": 3278,
      "مادر": 3279,
      "نو": 3280,
      "دخت": 3281,
      "داشته": 3282,
      "شم": 3283,
      "وقت": 3284,
      "لطفا": 3285,
      "بگم": 3286,
      "سه": 3287,
      "##ینه": 3288,
      "##جه": 3289,
      "##اف": 3290,
      "بیشتر": 3291,
      "مهم": 3292,
      "##وو": 3293,
      "##😭😭": 3294,
      "##رای": 3295,
      "##سته": 3296,
      "##کنم": 3297,
      "زد": 3298,
      "##رن": 3299,
      "##ارا": 3300,
      "منو": 3301,
      "بزار": 3302,
      "صب": 3303,
      "##ادم": 3304,
      "اب": 3305,
      "بل": 3306,
      "##الا": 3307,
      "##وق": 3308,
      "##ینی": 3309,
      "##یشه": 3310,
      "بالا": 3311,
      "میگم": 3312,
      "عم": 3313,
      "پو": 3314,
      "اومد": 3315,
      "میتون": 3316,
      "##ه‌ای": 3317,
      "##اطر": 3318,
      "##هه": 3319,
      "هفته": 3320,
      "تاپیک": 3321,
      "جواب": 3322,
      "سی": 3323,
      "باز": 3324,
      "میکنن": 3325,
      "میب": 3326,
      "مرد": 3327,
      "باه": 3328,
      "##بار": 3329,
      "حتی": 3330,
      "تم": 3331,
      "چیز": 3332,
      "نمیشه": 3333,
      "دخترم": 3334,
      "مثل": 3335,
      "##اغ": 3336,
      "ممن": 3337,
      "دارن": 3338,
      "##خص": 3339,
      "بوده": 3340,
      "بدم": 3341,
      "بزر": 3342,
      "##اک": 3343,
      "دیدم": 3344,
      "##اااا": 3345,
      "فر": 3346,
      "برام": 3347,
      "##بته": 3348,
      "اح": 3349,
      "##شب": 3350,
      "##قه": 3351,
      "غذ": 3352,
      "تب": 3353,
      "##تما": 3354,
      "کنی": 3355,
      "اینا": 3356,
      "خودت": 3357,
      "##مون": 3358,
      "##گاه": 3359,
      "خواب": 3360,
      "نارا": 3361,
      "نداشت": 3362,
      "زود": 3363,
      "##وت": 3364,
      "گوش": 3365,
      "اره": 3366,
      "##دی": 3367,
      "عرو": 3368,
      "##ه‌ی": 3369,
      "نمیتون": 3370,
      "##گار": 3371,
      "توی": 3372,
      "دوس": 3373,
      "##ستم": 3374,
      "نکرد": 3375,
      "داشتم": 3376,
      "##الله": 3377,
      "بیاد": 3378,
      "تن": 3379,
      "پسرم": 3380,
      "رفتم": 3381,
      "براش": 3382,
      "جن": 3383,
      "##ارو": 3384,
      "##نده": 3385,
      "##نج": 3386,
      "##رشوهرم": 3387,
      "##ریه": 3388,
      "ساعت": 3389,
      "کیا": 3390,
      "همون": 3391,
      "چط": 3392,
      "داری": 3393,
      "میش": 3394,
      "اگر": 3395,
      "امروز": 3396,
      "پر": 3397,
      "میده": 3398,
      "میگن": 3399,
      "چشم": 3400,
      "##ورت": 3401,
      "کوچ": 3402,
      "دن": 3403,
      "البته": 3404,
      "استف": 3405,
      "نام": 3406,
      "##رک": 3407,
      "لباس": 3408,
      "همیشه": 3409,
      "ات": 3410,
      "##جام": 3411,
      "نکن": 3412,
      "##خی": 3413,
      "مثلا": 3414,
      "مس": 3415,
      "##امی": 3416,
      "بزرگ": 3417,
      "قبل": 3418,
      "مج": 3419,
      "##چی": 3420,
      "تع": 3421,
      "##رر": 3422,
      "کد": 3423,
      "آب": 3424,
      "بگو": 3425,
      "برو": 3426,
      "حق": 3427,
      "بیرون": 3428,
      "شدن": 3429,
      "پای": 3430,
      "شاید": 3431,
      "خواست": 3432,
      "##سه": 3433,
      "میشم": 3434,
      "ری": 3435,
      "##فی": 3436,
      "##شته": 3437,
      "ناراحت": 3438,
      "##قا": 3439,
      "خانم": 3440,
      "آخ": 3441,
      "تج": 3442,
      "نبود": 3443,
      "دادم": 3444,
      "مش": 3445,
      "##قع": 3446,
      "ای": 3447,
      "##!!": 3448,
      "شه": 3449,
      "زنگ": 3450,
      "اد": 3451,
      "باهاش": 3452,
      "مه": 3453,
      "##ونو": 3454,
      "ده": 3455,
      "نظرتون": 3456,
      "نیس": 3457,
      "دقی": 3458,
      "هنو": 3459,
      "وا": 3460,
      "مامانم": 3461,
      "حتما": 3462,
      "##شید": 3463,
      "بودن": 3464,
      "مشکل": 3465,
      "انجام": 3466,
      "استفاده": 3467,
      "##وص": 3468,
      "یاد": 3469,
      "کلی": 3470,
      "دور": 3471,
      "دعا": 3472,
      "بارداری": 3473,
      "بگید": 3474,
      "نمیخو": 3475,
      "ساله": 3476,
      "خورد": 3477,
      "بگین": 3478,
      "##یدا": 3479,
      "درم": 3480,
      "##جی": 3481,
      "میتر": 3482,
      "##فه": 3483,
      "همسرم": 3484,
      "گو": 3485,
      "میگفت": 3486,
      "نباش": 3487,
      "زدم": 3488,
      "چقدر": 3489,
      "یکم": 3490,
      "کاری": 3491,
      "##اشق": 3492,
      "##انت": 3493,
      "قد": 3494,
      "تجرب": 3495,
      "اخه": 3496,
      "اینجوری": 3497,
      "اینجا": 3498,
      "گذاشت": 3499,
      "دوستان": 3500,
      "قشن": 3501,
      "وای": 3502,
      "سخت": 3503,
      "گرفتم": 3504,
      "طلاق": 3505,
      "شیر": 3506,
      "فرد": 3507,
      "صبح": 3508,
      "سرم": 3509,
      "ازش": 3510,
      "خانوم": 3511,
      "##‌تر": 3512,
      "جم": 3513,
      "##عه": 3514,
      "خانواده": 3515,
      "تازه": 3516,
      "اونم": 3517,
      "کام": 3518,
      "شن": 3519,
      "بیم": 3520,
      "مون": 3521,
      "خواهر": 3522,
      "بخاطر": 3523,
      "دید": 3524,
      "##اخ": 3525,
      "خد": 3526,
      "میخواد": 3527,
      "سایت": 3528,
      "زیر": 3529,
      "اند": 3530,
      "گرفته": 3531,
      "کرون": 3532,
      "##با": 3533,
      "خرید": 3534,
      "##باره": 3535,
      "بری": 3536,
      "حد": 3537,
      "##حم": 3538,
      "بپ": 3539,
      "جلو": 3540,
      "تک": 3541,
      "ممنون": 3542,
      "افت": 3543,
      "##اهی": 3544,
      "##فهم": 3545,
      "بش": 3546,
      "هیچی": 3547,
      "ادم": 3548,
      "آدم": 3549,
      "کدوم": 3550,
      "##ابط": 3551,
      "مگه": 3552,
      "میک": 3553,
      "بدون": 3554,
      "##لش": 3555,
      "مط": 3556,
      "روی": 3557,
      "##ته": 3558,
      "هنوز": 3559,
      "##رین": 3560,
      "##ادی": 3561,
      "صد": 3562,
      "بیاید": 3563,
      "کل": 3564,
      "##یییی": 3565,
      "میره": 3566,
      "##گران": 3567,
      "زای": 3568,
      "؟؟؟؟": 3569,
      "طرف": 3570,
      "سوال": 3571,
      "گفته": 3572,
      "برد": 3573,
      "ماش": 3574,
      "گریه": 3575,
      "##ینم": 3576,
      "##ایش": 3577,
      "نظ": 3578,
      "##حال": 3579,
      "بدن": 3580,
      "بنظر": 3581,
      "##ستان": 3582,
      "سن": 3583,
      "جای": 3584,
      "##خدا": 3585,
      "براد": 3586,
      "کنیم": 3587,
      "##لب": 3588,
      "##ه‌های": 3589,
      "راحت": 3590,
      "کت": 3591,
      "چجوری": 3592,
      "##امه": 3593,
      "رفته": 3594,
      "اه": 3595,
      "##اشو": 3596,
      "بذ": 3597,
      "داده": 3598,
      "زایمان": 3599,
      "سف": 3600,
      "تل": 3601,
      "شو": 3602,
      "بین": 3603,
      "انگار": 3604,
      "موقع": 3605,
      "##انش": 3606,
      "##۰۰": 3607,
      "بره": 3608,
      "جد": 3609,
      "عزیز": 3610,
      "رابط": 3611,
      "انت": 3612,
      "باشم": 3613,
      "میشن": 3614,
      "عاشق": 3615,
      "اع": 3616,
      "زم": 3617,
      "انش": 3618,
      "بابام": 3619,
      "کرونا": 3620,
      "لح": 3621,
      "هستم": 3622,
      "صورت": 3623,
      "تورو": 3624,
      "پیام": 3625,
      "موه": 3626,
      "رنگ": 3627,
      "بدی": 3628,
      "نمیتونم": 3629,
      "زده": 3630,
      "قبول": 3631,
      "بگیرم": 3632,
      "اف": 3633,
      "قط": 3634,
      "عالی": 3635,
      "هفت": 3636,
      "داریم": 3637,
      "پیدا": 3638,
      "عص": 3639,
      "وس": 3640,
      "میزنه": 3641,
      "بق": 3642,
      "گلم": 3643,
      "برگ": 3644,
      "کردی": 3645,
      "##اشون": 3646,
      "هستن": 3647,
      "##صی": 3648,
      "##دن": 3649,
      "چقد": 3650,
      "عو": 3651,
      "##بال": 3652,
      "سری": 3653,
      "میترسم": 3654,
      "ته": 3655,
      "میدم": 3656,
      "شی": 3657,
      "پوست": 3658,
      "هام": 3659,
      "خوشگ": 3660,
      "دوباره": 3661,
      "بهت": 3662,
      "عمل": 3663,
      "😂😂😂": 3664,
      "##ارش": 3665,
      "##😍😍": 3666,
      "##وره": 3667,
      "پری": 3668,
      "بنظرتون": 3669,
      "##چه": 3670,
      "##وع": 3671,
      "##روع": 3672,
      "##ورم": 3673,
      "داداش": 3674,
      "بازی": 3675,
      "دیگ": 3676,
      "نخو": 3677,
      "کنن": 3678,
      "فردا": 3679,
      "فی": 3680,
      "شوهرت": 3681,
      "##مد": 3682,
      "میکنی": 3683,
      "شام": 3684,
      "##قل": 3685,
      "تول": 3686,
      "غذا": 3687,
      "تومن": 3688,
      "اذ": 3689,
      "##جور": 3690,
      "سب": 3691,
      "کوچیک": 3692,
      "##کم": 3693,
      "عش": 3694,
      "##دد": 3695,
      "مادرشوهرم": 3696,
      "دارین": 3697,
      "نیم": 3698,
      "کنین": 3699,
      "خوبی": 3700,
      "گل": 3701,
      "##بر": 3702,
      "نگران": 3703,
      "شروع": 3704,
      "##تم": 3705,
      "میکنید": 3706,
      "بچم": 3707,
      "ایر": 3708,
      "##ورد": 3709,
      "خانواد": 3710,
      "بیای": 3711,
      "گفتن": 3712,
      "##سا": 3713,
      "وی": 3714,
      "نف": 3715,
      "ازم": 3716,
      "اط": 3717,
      "ماشین": 3718,
      "##صه": 3719,
      "راهنم": 3720,
      "میزار": 3721,
      "هرچی": 3722,
      "##اج": 3723,
      "پدر": 3724,
      "##خخ": 3725,
      "کس": 3726,
      "بیان": 3727,
      "اومده": 3728,
      "جا": 3729,
      "اشت": 3730,
      "مرسی": 3731,
      "نزد": 3732,
      "##ابه": 3733,
      "مورد": 3734,
      "##اله": 3735,
      "بعدش": 3736,
      "وزن": 3737,
      "رس": 3738,
      "##ایل": 3739,
      "بگه": 3740,
      "تی": 3741,
      "میرم": 3742,
      "بگیر": 3743,
      "قشنگ": 3744,
      "باشی": 3745,
      "چکار": 3746,
      "نیستم": 3747,
      "##نت": 3748,
      "##فاق": 3749,
      "پشت": 3750,
      "پایین": 3751,
      "جدا": 3752,
      "دوم": 3753,
      "بابا": 3754,
      "##زش": 3755,
      "دوتا": 3756,
      "جمع": 3757,
      "طبی": 3758,
      "بخدا": 3759,
      "بزنم": 3760,
      "میکردم": 3761,
      "دعوا": 3762,
      "باهم": 3763,
      "کش": 3764,
      "اقد": 3765,
      "##گیم": 3766,
      "بازم": 3767,
      "قیم": 3768,
      "فهم": 3769,
      "##صد": 3770,
      "شهر": 3771,
      "##ساس": 3772,
      "##الت": 3773,
      "##طی": 3774,
      "##😐😐": 3775,
      "اذیت": 3776,
      "##لای": 3777,
      "اینه": 3778,
      "اتفاق": 3779,
      "حل": 3780,
      "تموم": 3781,
      "بیا": 3782,
      "فل": 3783,
      "کاش": 3784,
      "##روم": 3785,
      "رابطه": 3786,
      "حالم": 3787,
      "خانوما": 3788,
      "راست": 3789,
      "نمیاد": 3790,
      "##ولی": 3791,
      "##ضا": 3792,
      "##اریم": 3793,
      "##ه‌ام": 3794,
      "عشق": 3795,
      "بهتره": 3796,
      "##وب": 3797,
      "کجا": 3798,
      "بقیه": 3799,
      "اونا": 3800,
      "##ازه": 3801,
      "برات": 3802,
      "##رسه": 3803,
      "رفتار": 3804,
      "چن": 3805,
      "خواهرم": 3806,
      "##لت": 3807,
      "بیمار": 3808,
      "عروس": 3809,
      "کود": 3810,
      "دنبال": 3811,
      "قرص": 3812,
      "دیشب": 3813,
      "بعضی": 3814,
      "خسته": 3815,
      "##‌ای": 3816,
      "خیانت": 3817,
      "ببخ": 3818,
      "سونو": 3819,
      "خونم": 3820,
      "میخوره": 3821,
      "احساس": 3822,
      "تق": 3823,
      "نمی‌": 3824,
      "اقدام": 3825,
      "ایش": 3826,
      "اگ": 3827,
      "##ظه": 3828,
      "خوشم": 3829,
      "😭😭😭": 3830,
      "انقد": 3831,
      "دنیا": 3832,
      "لاغ": 3833,
      "مص": 3834,
      "دارو": 3835,
      "عروسی": 3836,
      "وج": 3837,
      "تص": 3838,
      "ببینم": 3839,
      "شرای": 3840,
      "حساب": 3841,
      "بدین": 3842,
      "گی": 3843,
      "تح": 3844,
      "دارید": 3845,
      "بشم": 3846,
      "اشتب": 3847,
      "##نش": 3848,
      "امشب": 3849,
      "دقیقا": 3850,
      "گرم": 3851,
      "تنها": 3852,
      "تجربه": 3853,
      "روزه": 3854,
      "بید": 3855,
      "میگیره": 3856,
      "کنار": 3857,
      "فامی": 3858,
      "##یدی": 3859,
      "اینط": 3860,
      "##رار": 3861,
      "مم": 3862,
      "##قت": 3863,
      "شوهرش": 3864,
      "لی": 3865,
      "##رفتم": 3866,
      "آره": 3867,
      "##وس": 3868,
      "برن": 3869,
      "##لات": 3870,
      "میدونم": 3871,
      "مق": 3872,
      "زب": 3873,
      "تمام": 3874,
      "##اتون": 3875,
      "بک": 3876,
      "##رشوهر": 3877,
      "خط": 3878,
      "پنج": 3879,
      "##خم": 3880,
      "مرغ": 3881,
      "ارز": 3882,
      "بله": 3883,
      "نفر": 3884,
      "نگاه": 3885,
      "##ختی": 3886,
      "##ااا": 3887,
      "پار": 3888,
      "جوری": 3889,
      "همچ": 3890,
      "میخام": 3891,
      "##ومد": 3892,
      "استرس": 3893,
      "کودک": 3894,
      "بلند": 3895,
      "##امو": 3896,
      "چطور": 3897,
      "میپ": 3898,
      "نمیکنه": 3899,
      "چهار": 3900,
      "میزنم": 3901,
      "##زدم": 3902,
      "همسر": 3903,
      "ترس": 3904,
      "گوشی": 3905,
      "##انم": 3906,
      "جنسی": 3907,
      "بند": 3908,
      "شرایط": 3909,
      "سالم": 3910,
      "نزدیک": 3911,
      "آخه": 3912,
      "سرد": 3913,
      "##ماد": 3914,
      "اینو": 3915,
      "میخواست": 3916,
      "متو": 3917,
      "عقد": 3918,
      "انقدر": 3919,
      "تولد": 3920,
      "##خاب": 3921,
      "سالشه": 3922,
      "یهو": 3923,
      "##؟؟": 3924,
      "عوض": 3925,
      "##سو": 3926,
      "مادرم": 3927,
      "شدید": 3928,
      "مال": 3929,
      "##میم": 3930,
      "##خره": 3931,
      "##ایه": 3932,
      "بم": 3933,
      "دند": 3934,
      "آن": 3935,
      "##ختم": 3936,
      "روش": 3937,
      "##ریف": 3938,
      "پا": 3939,
      "خودتون": 3940,
      "##جب": 3941,
      "زندگیم": 3942,
      "کمکم": 3943,
      "بگیره": 3944,
      "اشتباه": 3945,
      "خواهش": 3946,
      "داغ": 3947,
      "##خته": 3948,
      "مری": 3949,
      "راضی": 3950,
      "حم": 3951,
      "بخرم": 3952,
      "درس": 3953,
      "پز": 3954,
      "اینم": 3955,
      "##یدن": 3956,
      "نکنه": 3957,
      "مشکلی": 3958,
      "خانما": 3959,
      "لحظه": 3960,
      "بریم": 3961,
      "روزی": 3962,
      "خاطر": 3963,
      "اعت": 3964,
      "عق": 3965,
      "صح": 3966,
      "اونجا": 3967,
      "رب": 3968,
      "دعو": 3969,
      "پریود": 3970,
      "##لوم": 3971,
      "##ونت": 3972,
      "##ذر": 3973,
      "##رام": 3974,
      "کردیم": 3975,
      "حساس": 3976,
      "خلا": 3977,
      "نا": 3978,
      "##شکر": 3979,
      "قیمت": 3980,
      "میذ": 3981,
      "امید": 3982,
      "##عکس": 3983,
      "اش": 3984,
      "دیروز": 3985,
      "دادن": 3986,
      "فرو": 3987,
      "دیو": 3988,
      "دلی": 3989,
      "دانش": 3990,
      "والا": 3991,
      "نشون": 3992,
      "کیلو": 3993,
      "##وقت": 3994,
      "میری": 3995,
      "خودشون": 3996,
      "وض": 3997,
      "##شد": 3998,
      "خا": 3999,
      "چاق": 4000,
      "##رایش": 4001,
      "انتخاب": 4002,
      "##رید": 4003,
      "قلب": 4004,
      "توروخدا": 4005,
      "##ابم": 4006,
      "بهترین": 4007,
      "##اییم": 4008,
      "اتاق": 4009,
      "خشک": 4010,
      "هزار": 4011,
      "##ترین": 4012,
      "##دارو": 4013,
      "پرو": 4014,
      "رژ": 4015,
      "بست": 4016,
      "تهر": 4017,
      "##🤣🤣": 4018,
      "ببخشید": 4019,
      "بح": 4020,
      "##ارد": 4021,
      "مغ": 4022,
      "بیمارستان": 4023,
      "##مت": 4024,
      "منظ": 4025,
      "##کت": 4026,
      "خراب": 4027,
      "##رفی": 4028,
      "بغ": 4029,
      "##خود": 4030,
      "فیلم": 4031,
      "##ازم": 4032,
      "مدت": 4033,
      "خرج": 4034,
      "##اهم": 4035,
      "سخته": 4036,
      "##حتم": 4037,
      "مخ": 4038,
      "نباشه": 4039,
      "کتاب": 4040,
      "زدن": 4041,
      "اومدم": 4042,
      "میدن": 4043,
      "اعص": 4044,
      "شر": 4045,
      "اونایی": 4046,
      "حالت": 4047,
      "تون": 4048,
      "##تره": 4049,
      "قرار": 4050,
      "راهنمایی": 4051,
      "منت": 4052,
      "##ادو": 4053,
      "##هی": 4054,
      "##ستا": 4055,
      "میدون": 4056,
      "خدارو": 4057,
      "بس": 4058,
      "اک": 4059,
      "مطم": 4060,
      "کامل": 4061,
      "##اشتی": 4062,
      "اض": 4063,
      "!!!": 4064,
      "نداشته": 4065,
      "تر": 4066,
      "طول": 4067,
      "##نا": 4068,
      "جایی": 4069,
      "مصرف": 4070,
      "نگه": 4071,
      "دختره": 4072,
      "جور": 4073,
      "جون": 4074,
      "باع": 4075,
      "وضع": 4076,
      "الانم": 4077,
      "ممکنه": 4078,
      "بودیم": 4079,
      "فع": 4080,
      "کرم": 4081,
      "چطوری": 4082,
      "هز": 4083,
      "مادرش": 4084,
      "طب": 4085,
      "نشد": 4086,
      "درسته": 4087,
      "انشالله": 4088,
      "گاهی": 4089,
      "جوش": 4090,
      "##ردی": 4091,
      "ترک": 4092,
      "##تح": 4093,
      "؟!": 4094,
      "بزارم": 4095,
      "##رتب": 4096,
      "نص": 4097,
      "خودمو": 4098,
      "قسم": 4099,
      "گیر": 4100,
      "##فن": 4101,
      "##ادت": 4102,
      "اج": 4103,
      "ماهه": 4104,
      "##خونه": 4105,
      "احتم": 4106,
      "مان": 4107,
      "تاث": 4108,
      "چک": 4109,
      "سای": 4110,
      "ماهی": 4111,
      "پست": 4112,
      "ول": 4113,
      "##شویی": 4114,
      "بذار": 4115,
      "##ساله": 4116,
      "نشه": 4117,
      "گر": 4118,
      "##رات": 4119,
      "##گیر": 4120,
      "هاش": 4121,
      "##پز": 4122,
      "نباید": 4123,
      "خوشب": 4124,
      "ینی": 4125,
      "خدای": 4126,
      "زمان": 4127,
      "مب": 4128,
      "بخون": 4129,
      "گرفتن": 4130,
      "قبلا": 4131,
      "##امون": 4132,
      "##شتم": 4133,
      "##فتم": 4134,
      "تغ": 4135,
      "جی": 4136,
      "گذاشتم": 4137,
      "آزم": 4138,
      "باعث": 4139,
      "بدید": 4140,
      "نشده": 4141,
      "میشد": 4142,
      "دوستم": 4143,
      "میخوای": 4144,
      "نداشتم": 4145,
      "میدونه": 4146,
      "معرفی": 4147,
      "##‌ی": 4148,
      "شکم": 4149,
      "داخ": 4150,
      "##شیم": 4151,
      "کلاس": 4152,
      "میتونی": 4153,
      "##😢😢": 4154,
      "نکرده": 4155,
      "گف": 4156,
      "خلاصه": 4157,
      "خوشگل": 4158,
      "داشتن": 4159,
      "کیک": 4160,
      "جاریم": 4161,
      "بزنه": 4162,
      "صحبت": 4163,
      "اضاف": 4164,
      "##وان": 4165,
      "احتر": 4166,
      "##بود": 4167,
      "رفتن": 4168,
      "آش": 4169,
      "خریدم": 4170,
      "##عد": 4171,
      "تای": 4172,
      "هد": 4173,
      "طبیعی": 4174,
      "درمان": 4175,
      "نکردم": 4176,
      "پاک": 4177,
      "مریض": 4178,
      "خوردم": 4179,
      "بخوره": 4180,
      "روح": 4181,
      "میتونه": 4182,
      "نس": 4183,
      "حام": 4184,
      "کوت": 4185,
      "روغ": 4186,
      "آم": 4187,
      "پسره": 4188,
      "امتح": 4189,
      "😂😂": 4190,
      "نظرم": 4191,
      "اینقدر": 4192,
      "کنک": 4193,
      "##الم": 4194,
      "فرز": 4195,
      "تهران": 4196,
      "##اسف": 4197,
      "انگ": 4198,
      "##نگی": 4199,
      "سقط": 4200,
      "اولین": 4201,
      "جز": 4202,
      "سرش": 4203,
      "بیدار": 4204,
      "متوجه": 4205,
      "کج": 4206,
      "نمیکنم": 4207,
      "داداشم": 4208,
      "سرکار": 4209,
      "تعریف": 4210,
      "بلد": 4211,
      "قطع": 4212,
      "ممنونم": 4213,
      "سعی": 4214,
      "تمی": 4215,
      "مست": 4216,
      "##اها": 4217,
      "مشا": 4218,
      "##حتی": 4219,
      "نیاز": 4220,
      "هایی": 4221,
      "بینی": 4222,
      "اخلاق": 4223,
      "پزشک": 4224,
      "##انس": 4225,
      "بحث": 4226,
      "معمو": 4227,
      "دم": 4228,
      "باشن": 4229,
      "##لیون": 4230,
      "سفید": 4231,
      "اشک": 4232,
      "##ییی": 4233,
      "خورده": 4234,
      "جنسیت": 4235,
      "بردم": 4236,
      "##وووو": 4237,
      "مردم": 4238,
      "مهرب": 4239,
      "نداری": 4240,
      "##کش": 4241,
      "شوهرتون": 4242,
      "حوص": 4243,
      "##ذاب": 4244,
      "حدود": 4245,
      "شخص": 4246,
      "قهر": 4247,
      "غیر": 4248,
      "بعدا": 4249,
      "شا": 4250,
      "میشی": 4251,
      "میبینم": 4252,
      "دندون": 4253,
      "فامیل": 4254,
      "عید": 4255,
      "نمیده": 4256,
      "متاسف": 4257,
      "خار": 4258,
      "دف": 4259,
      "##رکت": 4260,
      "عف": 4261,
      "تنه": 4262,
      "##کک": 4263,
      "همچین": 4264,
      "پدرم": 4265,
      "شغ": 4266,
      "الکی": 4267,
      "درو": 4268,
      "دعوت": 4269,
      "میزارم": 4270,
      "وجود": 4271,
      "بدب": 4272,
      "مجب": 4273,
      "ناه": 4274,
      "کف": 4275,
      "جدید": 4276,
      "##هههه": 4277,
      "##گیری": 4278,
      "خودمم": 4279,
      "خبر": 4280,
      "##ظرم": 4281,
      "بتون": 4282,
      "باشید": 4283,
      "قه": 4284,
      "##راغ": 4285,
      "##ناه": 4286,
      "##ه‌اش": 4287,
      "کردین": 4288,
      "طلا": 4289,
      "مدل": 4290,
      "براتون": 4291,
      "خداروشکر": 4292,
      "##خصوص": 4293,
      "گوشت": 4294,
      "##امین": 4295,
      "میخورم": 4296,
      "##حالا": 4297,
      "اینستا": 4298,
      "پیشنه": 4299,
      "فش": 4300,
      "مونده": 4301,
      "افس": 4302,
      "روغن": 4303,
      "##ارن": 4304,
      "تصمیم": 4305,
      "ورز": 4306,
      "نده": 4307,
      "##رسم": 4308,
      "##گم": 4309,
      "رژیم": 4310,
      "گرد": 4311,
      "##میرم": 4312,
      "نامزد": 4313,
      "فرزند": 4314,
      "میکنیم": 4315,
      "##شناس": 4316,
      "##پی": 4317,
      "بخورم": 4318,
      "امتحان": 4319,
      "تقری": 4320,
      "##یکه": 4321,
      "کوتاه": 4322,
      "نخ": 4323,
      "اینطوری": 4324,
      "بهشون": 4325,
      "باشیم": 4326,
      "بو": 4327,
      "سالگی": 4328,
      "بفر": 4329,
      "یادم": 4330,
      "##خورد": 4331,
      "دلت": 4332,
      "##یاف": 4333,
      "جان": 4334,
      "بخور": 4335,
      "##خواست": 4336,
      "ار": 4337,
      "حدا": 4338,
      "مالی": 4339,
      "##کر": 4340,
      "دستم": 4341,
      "##نن": 4342,
      "هس": 4343,
      "##زا": 4344,
      "میزد": 4345,
      "دانشگاه": 4346,
      "دوره": 4347,
      "عین": 4348,
      "پاش": 4349,
      "قرم": 4350,
      "##😔😔": 4351,
      "شکر": 4352,
      "بفهم": 4353,
      "##اض": 4354,
      "##‌ترین": 4355,
      "##فق": 4356,
      "##وند": 4357,
      "تخم": 4358,
      "مادرشوهر": 4359,
      "عالیه": 4360,
      "ندارن": 4361,
      "محبت": 4362,
      "سالمه": 4363,
      "خوشحال": 4364,
      "ایران": 4365,
      "برادر": 4366,
      "،،": 4367,
      "نرم": 4368,
      "حقوق": 4369,
      "خونمون": 4370,
      "زمین": 4371,
      "خوندم": 4372,
      "۱۰": 4373,
      "معلوم": 4374,
      "فهمیدم": 4375,
      "سنگ": 4376,
      "تقریبا": 4377,
      "۲۰": 4378,
      "##ماه": 4379,
      "##ریک": 4380,
      "نمیکن": 4381,
      "##روی": 4382,
      "مخصوص": 4383,
      "نتی": 4384,
      "فعلا": 4385,
      "نزن": 4386,
      "##زاد": 4387,
      "ناهار": 4388,
      "مناس": 4389,
      "خالی": 4390,
      "دلیل": 4391,
      "##تونو": 4392,
      "خودشو": 4393,
      "##مممم": 4394,
      "##رفه": 4395,
      "بکن": 4396,
      "شلو": 4397,
      "کمتر": 4398,
      "سریع": 4399,
      "##ثر": 4400,
      "تاثیر": 4401,
      "##کاری": 4402,
      "##یف": 4403,
      "میتونم": 4404,
      "اعتماد": 4405,
      "خودتو": 4406,
      "جاری": 4407,
      "ذه": 4408,
      "##راه": 4409,
      "فوت": 4410,
      "##فل": 4411,
      "اینجور": 4412,
      "شدی": 4413,
      "شش": 4414,
      "بلا": 4415,
      "کشید": 4416,
      "اضافه": 4417,
      "برنج": 4418,
      "مرا": 4419,
      "نمیخوام": 4420,
      "##ائ": 4421,
      "اسی": 4422,
      "آزمایش": 4423,
      "مهمون": 4424,
      "جنین": 4425,
      "😍😍😍": 4426,
      "خودمون": 4427,
      "##انو": 4428,
      "اجا": 4429,
      "##ذره": 4430,
      "##اشتم": 4431,
      "دکت": 4432,
      "##صوص": 4433,
      "عجی": 4434,
      "##ادر": 4435,
      "متن": 4436,
      "باور": 4437,
      "توجه": 4438,
      "پیشنهاد": 4439,
      "مبار": 4440,
      "تحم": 4441,
      "حداقل": 4442,
      "ببینید": 4443,
      "سمت": 4444,
      "مطمئ": 4445,
      "آذر": 4446,
      "میگیرم": 4447,
      "##عم": 4448,
      "اق": 4449,
      "هستی": 4450,
      "میان": 4451,
      "ببرم": 4452,
      "روشن": 4453,
      "ماس": 4454,
      "فرق": 4455,
      "##کسی": 4456,
      "دیر": 4457,
      "بدتر": 4458,
      "موض": 4459,
      "افتاد": 4460,
      "اخر": 4461,
      "داخل": 4462,
      "##لیه": 4463,
      "پرس": 4464,
      "ظرف": 4465,
      "وح": 4466,
      "میکشه": 4467,
      "علاق": 4468,
      "نتون": 4469,
      "##اسم": 4470,
      "کاملا": 4471,
      "پشیم": 4472,
      "دوران": 4473,
      "فلان": 4474,
      "ادامه": 4475,
      "##پس": 4476,
      "هرکی": 4477,
      "##رافی": 4478,
      "##الب": 4479,
      "باردارم": 4480,
      "یخ": 4481,
      "علا": 4482,
      "اجازه": 4483,
      "ازمایش": 4484,
      "نداریم": 4485,
      "متاسفانه": 4486,
      "شوهرمم": 4487,
      "بج": 4488,
      "مجرد": 4489,
      "##اص": 4490,
      "چش": 4491,
      "توش": 4492,
      "خدایی": 4493,
      "##اند": 4494,
      "##وست": 4495,
      "عفونت": 4496,
      "قاب": 4497,
      "وسط": 4498,
      "عصب": 4499,
      "میاره": 4500,
      "##لط": 4501,
      "بهتون": 4502,
      "##باب": 4503,
      "هزینه": 4504,
      "هاتون": 4505,
      "سبزی": 4506,
      "تمیز": 4507,
      "##لمه": 4508,
      "میم": 4509,
      "شماره": 4510,
      "##زده": 4511,
      "##کو": 4512,
      "##گرنه": 4513,
      "موفق": 4514,
      "ترش": 4515,
      "بف": 4516,
      "مثبت": 4517,
      "کارم": 4518,
      "##خصص": 4519,
      "لاغر": 4520,
      "زیادی": 4521,
      "زودتر": 4522,
      "کارب": 4523,
      "خج": 4524,
      "روان": 4525,
      "وارد": 4526,
      "بیایین": 4527,
      "انشا": 4528,
      "##رص": 4529,
      "##ماز": 4530,
      "قسمت": 4531,
      "##وهرم": 4532,
      "##خیلی": 4533,
      "اندا": 4534,
      "پولدار": 4535,
      "ناراحتم": 4536,
      "آخر": 4537,
      "میداد": 4538,
      "مواد": 4539,
      "نوشته": 4540,
      "حموم": 4541,
      "ست": 4542,
      "بشن": 4543,
      "میکنین": 4544,
      "شنیدم": 4545,
      "اطلا": 4546,
      "قشنگه": 4547,
      "مشخص": 4548,
      "رفتیم": 4549,
      "نداد": 4550,
      "چیزا": 4551,
      "##ژی": 4552,
      "دستش": 4553,
      "##ستن": 4554,
      "تش": 4555,
      "سیب": 4556,
      "##یمو": 4557,
      "میخاد": 4558,
      "دروغ": 4559,
      "پود": 4560,
      "نیستن": 4561,
      "ناز": 4562,
      "جه": 4563,
      "شبیه": 4564,
      "##ضیح": 4565,
      "##او": 4566,
      "دقیقه": 4567,
      "زیاده": 4568,
      "۱۵": 4569,
      "خصوص": 4570,
      "نذ": 4571,
      "وب": 4572,
      "##رخ": 4573,
      "همینط": 4574,
      "گناه": 4575,
      "حاج": 4576,
      "لازم": 4577,
      "وگرنه": 4578,
      "بعدم": 4579,
      "##فظ": 4580,
      "میخواستم": 4581,
      "اینکار": 4582,
      "متاه": 4583,
      "##کردم": 4584,
      "دوسال": 4585,
      "##ودی": 4586,
      "##لوات": 4587,
      "لای": 4588,
      "نسبت": 4589,
      "مدرسه": 4590,
      "##پول": 4591,
      "هو": 4592,
      "توضیح": 4593,
      "شربت": 4594,
      "تحمل": 4595,
      "##ستی": 4596,
      "کسایی": 4597,
      "تاب": 4598,
      "نمیزن": 4599,
      "مهمونی": 4600,
      "##😁😁": 4601,
      "مار": 4602,
      "کمی": 4603,
      "امیدو": 4604,
      "قراره": 4605,
      "میز": 4606,
      "الهی": 4607,
      "خوردن": 4608,
      "##گان": 4609,
      "##جو": 4610,
      "چرب": 4611,
      "دیده": 4612,
      "##اموش": 4613,
      "لطف": 4614,
      "واقع": 4615,
      "##سل": 4616,
      "!!": 4617,
      "داست": 4618,
      "بنظرم": 4619,
      "##گو": 4620,
      "حض": 4621,
      "##گاری": 4622,
      "برنامه": 4623,
      "فشار": 4624,
      "میوه": 4625,
      "بشی": 4626,
      "پیج": 4627,
      "##شش": 4628,
      "کارت": 4629,
      "##گیره": 4630,
      "##داری": 4631,
      "نتیجه": 4632,
      "خانومای": 4633,
      "##ویس": 4634,
      "زشت": 4635,
      "نصف": 4636,
      "موندم": 4637,
      "نمیخ": 4638,
      "خواستگار": 4639,
      "برس": 4640,
      "ورزش": 4641,
      "مردا": 4642,
      "حاض": 4643,
      "##حمت": 4644,
      "دوسش": 4645,
      "##ضیا": 4646,
      "بگیری": 4647,
      "افتاده": 4648,
      "سزار": 4649,
      "دونه": 4650,
      "کارش": 4651,
      "گرون": 4652,
      "درصد": 4653,
      "خدایا": 4654,
      "##ایم": 4655,
      "اعصاب": 4656,
      "می‌کن": 4657,
      "باهام": 4658,
      "چطوره": 4659,
      "صبر": 4660,
      "رد": 4661,
      "دلش": 4662,
      "بالای": 4663,
      "احترام": 4664,
      "تره": 4665,
      "۱۲": 4666,
      "فرم": 4667,
      "جدی": 4668,
      "زور": 4669,
      "لع": 4670,
      "گفتی": 4671,
      "درک": 4672,
      "ارایش": 4673,
      "##رامش": 4674,
      "یبار": 4675,
      "میزنن": 4676,
      "نکنم": 4677,
      "هشت": 4678,
      "مهمه": 4679,
      "کادو": 4680,
      "##راز": 4681,
      "##رسی": 4682,
      "صلوات": 4683,
      "##ارت": 4684,
      "خجالت": 4685,
      "باد": 4686,
      "فروش": 4687,
      "نمیب": 4688,
      "##سب": 4689,
      "##یمی": 4690,
      "موضوع": 4691,
      "##اتو": 4692,
      "نفس": 4693,
      "کنکور": 4694,
      "عر": 4695,
      "ناخ": 4696,
      "ساده": 4697,
      "کوچول": 4698,
      "##اظ": 4699,
      "خوشمزه": 4700,
      "قرب": 4701,
      "مانتو": 4702,
      "عصبی": 4703,
      "میفر": 4704,
      "ببر": 4705,
      "بیایید": 4706,
      "تف": 4707,
      "واکس": 4708,
      "زیب": 4709,
      "##عات": 4710,
      "اتفاقا": 4711,
      "سرما": 4712,
      "شدت": 4713,
      "خونو": 4714,
      "بعضیا": 4715,
      "نق": 4716,
      "نمیتونه": 4717,
      "##اهر": 4718,
      "می‌خو": 4719,
      "کاف": 4720,
      "##یات": 4721,
      "میرفت": 4722,
      "##رشون": 4723,
      "فرست": 4724,
      "رف": 4725,
      "##اشم": 4726,
      "😭😭": 4727,
      "کمه": 4728,
      "##ابقه": 4729,
      "بیام": 4730,
      "##ینک": 4731,
      "خخخ": 4732,
      "بخونم": 4733,
      "منه": 4734,
      "##گفت": 4735,
      "بمونه": 4736,
      "بریز": 4737,
      "امسال": 4738,
      "دام": 4739,
      "حج": 4740,
      "##ندم": 4741,
      "خونشون": 4742,
      "تغی": 4743,
      "##سس": 4744,
      "سختی": 4745,
      "صدا": 4746,
      "سیاه": 4747,
      "میلیون": 4748,
      "تهوع": 4749,
      "اندازه": 4750,
      "اومدن": 4751,
      "##اپ": 4752,
      "عذاب": 4753,
      "##تت": 4754,
      "نگرانم": 4755,
      "آشن": 4756,
      "بسته": 4757,
      "بودی": 4758,
      "شغل": 4759,
      "##کان": 4760,
      "##حی": 4761,
      "##ختن": 4762,
      "دقیق": 4763,
      "هیچوقت": 4764,
      "گذشته": 4765,
      "##اطی": 4766,
      "##سط": 4767,
      "خاک": 4768,
      "میخوان": 4769,
      "##الان": 4770,
      "میسو": 4771,
      "تیکه": 4772,
      "فح": 4773,
      "##در": 4774,
      "سینه": 4775,
      "##رررر": 4776,
      "امام": 4777,
      "##نتی": 4778,
      "فال": 4779,
      "علائ": 4780,
      "هستید": 4781,
      "بچه‌های": 4782,
      "نامزدم": 4783,
      "سزارین": 4784,
      "نت": 4785,
      "بزنی": 4786,
      "قان": 4787,
      "خاط": 4788,
      "گروه": 4789,
      "حرص": 4790,
      "ربطی": 4791,
      "سرخ": 4792,
      "میل": 4793,
      "نمیزار": 4794,
      "تغییر": 4795,
      "##خیال": 4796,
      "باباش": 4797,
      "##ابی": 4798,
      "زبان": 4799,
      "کان": 4800,
      "بیار": 4801,
      "سلامتی": 4802,
      "##ربه": 4803,
      "دفعه": 4804,
      "##قم": 4805,
      "واسم": 4806,
      "بیماری": 4807,
      "قبلی": 4808,
      "داشتیم": 4809,
      "اینقد": 4810,
      "فوق": 4811,
      "مشکلات": 4812,
      "اصن": 4813,
      "##عف": 4814,
      "##فاوت": 4815,
      "بال": 4816,
      "پودر": 4817,
      "بدونم": 4818,
      "دکترم": 4819,
      "پوش": 4820,
      "کث": 4821,
      "داستان": 4822,
      "خاصی": 4823,
      "شاد": 4824,
      "عادت": 4825,
      "تاحالا": 4826,
      "حو": 4827,
      "هستین": 4828,
      "آرایش": 4829,
      "##اسی": 4830,
      "ضد": 4831,
      "سرفه": 4832,
      "##کل": 4833,
      "وقتا": 4834,
      "##حه": 4835,
      "جام": 4836,
      "ارزش": 4837,
      "میدونی": 4838,
      "ابرو": 4839,
      "کننده": 4840,
      "تنب": 4841,
      "شیاف": 4842,
      "نماز": 4843,
      "گذاشته": 4844,
      "آرز": 4845,
      "ازت": 4846,
      "میند": 4847,
      "آروم": 4848,
      "لک": 4849,
      "آیا": 4850,
      "##راف": 4851,
      "مخصوصا": 4852,
      "پوشک": 4853,
      "صف": 4854,
      "کردید": 4855,
      "متخصص": 4856,
      "زبون": 4857,
      "واکسن": 4858,
      "جل": 4859,
      "امیدوارم": 4860,
      "لو": 4861,
      "بخواد": 4862,
      "شبا": 4863,
      "مای": 4864,
      "استخ": 4865,
      "سراغ": 4866,
      "هیک": 4867,
      "شرکت": 4868,
      "##طر": 4869,
      "فرش": 4870,
      "😐😐😐": 4871,
      "##داد": 4872,
      "##گرم": 4873,
      "طل": 4874,
      "##توم": 4875,
      "نگفت": 4876,
      "شوخی": 4877,
      "##رژی": 4878,
      "موهام": 4879,
      "خانوادم": 4880,
      "بان": 4881,
      "دوستای": 4882,
      "احتمالا": 4883,
      "پرت": 4884,
      "ازین": 4885,
      "##ضیه": 4886,
      "شع": 4887,
      "سک": 4888,
      "علی": 4889,
      "چندتا": 4890,
      "تخ": 4891,
      "معت": 4892,
      "##همه": 4893,
      "حوصله": 4894,
      "همراه": 4895,
      "ارتب": 4896,
      "##دید": 4897,
      "ندیدم": 4898,
      "بذارم": 4899,
      "##ااااا": 4900,
      "مرگ": 4901,
      "نمیخوره": 4902,
      "درمی": 4903,
      "خواهرشوهرم": 4904,
      "شوهرمو": 4905,
      "##گل": 4906,
      "بچها": 4907,
      "سوپ": 4908,
      "برگشت": 4909,
      "کیف": 4910,
      "##ابون": 4911,
      "نمیدون": 4912,
      "##نوان": 4913,
      "رای": 4914,
      "مامانا": 4915,
      "ایشون": 4916,
      "تست": 4917,
      "بیخیال": 4918,
      "خواستم": 4919,
      "باشین": 4920,
      "هستش": 4921,
      "سین": 4922,
      "میام": 4923,
      "میفهم": 4924,
      "منظورم": 4925,
      "اهل": 4926,
      "اورد": 4927,
      "اسه": 4928,
      "##😘😘": 4929,
      "میذارم": 4930,
      "مناسب": 4931,
      "فدا": 4932,
      "😍😍": 4933,
      "تنهایی": 4934,
      "نگو": 4935,
      "شدیم": 4936,
      "##ورتی": 4937,
      "منفی": 4938,
      "خنده": 4939,
      "راهنماییم": 4940,
      "محل": 4941,
      "احتمال": 4942,
      "##ابت": 4943,
      "خارج": 4944,
      "اولش": 4945,
      "ایشالا": 4946,
      "میرن": 4947,
      "عجیب": 4948,
      "شمام": 4949,
      "علاقه": 4950,
      "##یاز": 4951,
      "##امد": 4952,
      "دما": 4953,
      "بگن": 4954,
      "استار": 4955,
      "##گری": 4956,
      "براشون": 4957,
      "##یل": 4958,
      "حاجت": 4959,
      "بوی": 4960,
      "مسخره": 4961,
      "خاله": 4962,
      "۱۴": 4963,
      "افسرد": 4964,
      "انشاالله": 4965,
      "شون": 4966,
      "همینه": 4967,
      "مجبور": 4968,
      "خیر": 4969,
      "مرب": 4970,
      "میبینه": 4971,
      "##وده": 4972,
      "اینطور": 4973,
      "ماست": 4974,
      "تند": 4975,
      "غذایی": 4976,
      "صورتم": 4977,
      "زنش": 4978,
      "ماسک": 4979,
      "میشناس": 4980,
      "درآ": 4981,
      "مامانش": 4982,
      "##عیه": 4983,
      "تلاش": 4984,
      "مهربون": 4985,
      "مرده": 4986,
      "فره": 4987,
      "بیارم": 4988,
      "بخر": 4989,
      "ببینه": 4990,
      "بغل": 4991,
      "##اهای": 4992,
      "دیدن": 4993,
      "رشد": 4994,
      "##سک": 4995,
      "فای": 4996,
      "تکون": 4997,
      "اروم": 4998,
      "خانوادش": 4999,
      "روم": 5000,
      "انس": 5001,
      "اصل": 5002,
      "استارتر": 5003,
      "دس": 5004,
      "نفهم": 5005,
      "چیکارکنم": 5006,
      "خانمای": 5007,
      "واب": 5008,
      "سوم": 5009,
      "صدای": 5010,
      "رشته": 5011,
      "##شونو": 5012,
      "##پو": 5013,
      "محمد": 5014,
      "ارتباط": 5015,
      "حفظ": 5016,
      "بچش": 5017,
      "هستیم": 5018,
      "یب": 5019,
      "##صل": 5020,
      "چیزای": 5021,
      "😂😂😂😂": 5022,
      "حرفی": 5023,
      "نون": 5024,
      "قوی": 5025,
      "آورد": 5026,
      "تنگ": 5027,
      "اونو": 5028,
      "کاربر": 5029,
      "بالاخره": 5030,
      "اسهال": 5031,
      "شاغ": 5032,
      "بفرست": 5033,
      "رنگی": 5034,
      "خاست": 5035,
      "ایرانی": 5036,
      "نمک": 5037,
      "حامله": 5038,
      "##رشو": 5039,
      "اعصابم": 5040,
      "##عایت": 5041,
      "اسپ": 5042,
      "طوری": 5043,
      "##گرام": 5044,
      "کارو": 5045,
      "دادی": 5046,
      "مرتب": 5047,
      "دستشویی": 5048,
      "اسمش": 5049,
      "جلوی": 5050,
      "آو": 5051,
      "درمورد": 5052,
      "میگفتم": 5053,
      "آق": 5054,
      "##شتن": 5055,
      "##دان": 5056,
      "برخورد": 5057,
      "میدی": 5058,
      "یخچ": 5059,
      "##ومده": 5060,
      "قرمز": 5061,
      "کشیدم": 5062,
      "ویت": 5063,
      "نمیخواد": 5064,
      "آقا": 5065,
      "۱۸": 5066,
      "اسک": 5067,
      "کارای": 5068,
      "##ریزی": 5069,
      "خورا": 5070,
      "##وز": 5071,
      "فحش": 5072,
      "واست": 5073,
      "بودین": 5074,
      "##😑😑": 5075,
      "خانه": 5076,
      "ترم": 5077,
      "مهریه": 5078,
      "میکشم": 5079,
      "لاغری": 5080,
      "نک": 5081,
      "اخت": 5082,
      "آه": 5083,
      "نمیره": 5084,
      "ترو": 5085,
      "##ازی": 5086,
      "گذشت": 5087,
      "عض": 5088,
      "برمی": 5089,
      "رسید": 5090,
      "شکمم": 5091,
      "دیوونه": 5092,
      "نرفت": 5093,
      "غری": 5094,
      "بسی": 5095,
      "##جبه": 5096,
      "😢😢😢": 5097,
      "درگیر": 5098,
      "بشین": 5099,
      "برسه": 5100,
      "نکنید": 5101,
      "##چند": 5102,
      "ثبت": 5103,
      "دوبار": 5104,
      "##فرم": 5105,
      "##وندم": 5106,
      "ون": 5107,
      "انداز": 5108,
      "منط": 5109,
      "##سری": 5110,
      "حرفا": 5111,
      "پن": 5112,
      "علائم": 5113,
      "عنوان": 5114,
      "افر": 5115,
      "مبل": 5116,
      "پشیمون": 5117,
      "عقب": 5118,
      "میمونه": 5119,
      "رحم": 5120,
      "بنده": 5121,
      "افسردگی": 5122,
      "##تونه": 5123,
      "سلی": 5124,
      "۱۶": 5125,
      "##وشی": 5126,
      "وات": 5127,
      "قول": 5128,
      "میومد": 5129,
      "زمینی": 5130,
      "موهای": 5131,
      "داغون": 5132,
      "دماغ": 5133,
      "مشاوره": 5134,
      "دهن": 5135,
      "رعایت": 5136,
      "ببینیم": 5137,
      "قدم": 5138,
      "انتظ": 5139,
      "مجا": 5140,
      "توه": 5141,
      "بگیم": 5142,
      "ناب": 5143,
      "پیاز": 5144,
      "مخت": 5145,
      "ود": 5146,
      "بازار": 5147,
      "خال": 5148,
      "##یییییییی": 5149,
      "طبیعیه": 5150,
      "گز": 5151,
      "بز": 5152,
      "معده": 5153,
      "##ذف": 5154,
      "نیومد": 5155,
      "باها": 5156,
      "ضعی": 5157,
      "##میه": 5158,
      "معمولی": 5159,
      "##راحت": 5160,
      "بگیریم": 5161,
      "زنان": 5162,
      "حی": 5163,
      "##میت": 5164,
      "بزرگتر": 5165,
      "بعدشم": 5166,
      "زیبا": 5167,
      "غصه": 5168,
      "کمر": 5169,
      "تخت": 5170,
      "کال": 5171,
      "##ذه": 5172,
      "##ریق": 5173,
      "دوستی": 5174,
      "مشاور": 5175,
      "درامد": 5176,
      "دری": 5177,
      "زیبایی": 5178,
      "ور": 5179,
      "تکرار": 5180,
      "اکث": 5181,
      "😔😔😔": 5182,
      "هن": 5183,
      "بپرس": 5184,
      "حالی": 5185,
      "کر": 5186,
      "همچن": 5187,
      "شیرینی": 5188,
      "زشته": 5189,
      "مدام": 5190,
      "##ینده": 5191,
      "چت": 5192,
      "فایده": 5193,
      "بدیم": 5194,
      "بیچ": 5195,
      "##تیپ": 5196,
      "ید": 5197,
      "##خیص": 5198,
      "سرچ": 5199,
      "هدیه": 5200,
      "ایا": 5201,
      "##تونم": 5202,
      "یو": 5203,
      "باهاشون": 5204,
      "قبلش": 5205,
      "وسایل": 5206,
      "ازشون": 5207,
      "ظهر": 5208,
      "داشتی": 5209,
      "درخواست": 5210,
      "راهی": 5211,
      "یکبار": 5212,
      "همسرت": 5213,
      "کشی": 5214,
      "##ندی": 5215,
      "پذ": 5216,
      "جالب": 5217,
      "##گن": 5218,
      "دوماه": 5219,
      "##بعد": 5220,
      "قاشق": 5221,
      "میگیرن": 5222,
      "پدرشوهرم": 5223,
      "غر": 5224,
      "هاشون": 5225,
      "سایتی": 5226,
      "سروی": 5227,
      "##پش": 5228,
      "🤣🤣🤣": 5229,
      "چیزایی": 5230,
      "مشه": 5231,
      "ضرر": 5232,
      "##ندگی": 5233,
      "جنس": 5234,
      "میسوزه": 5235,
      "اقا": 5236,
      "راجب": 5237,
      "اوایل": 5238,
      "حذف": 5239,
      "مطمئن": 5240,
      "بااین": 5241,
      "سبز": 5242,
      "واژ": 5243,
      "فاص": 5244,
      "مبارک": 5245,
      "۱۷": 5246,
      "دیگه‌ای": 5247,
      "آمو": 5248,
      "اپ": 5249,
      "لیوان": 5250,
      "##ذب": 5251,
      "میمیرم": 5252,
      "بدبخت": 5253,
      "واسش": 5254,
      "میریم": 5255,
      "میخونم": 5256,
      "زنه": 5257,
      "عادی": 5258,
      "۱۰۰": 5259,
      "۱۱": 5260,
      "نوش": 5261,
      "##رح": 5262,
      "سنتی": 5263,
      "##اشه": 5264,
      "ارس": 5265,
      "معلم": 5266,
      "نوزاد": 5267,
      "##اح": 5268,
      "##ترس": 5269,
      "نشدم": 5270,
      "لذ": 5271,
      "😭😭😭😭😭": 5272,
      "ماهم": 5273,
      "بکنم": 5274,
      "##ءالله": 5275,
      "پیر": 5276,
      "ریز": 5277,
      "خوشتیپ": 5278,
      "##قب": 5279,
      "##کلا": 5280,
      "په": 5281,
      "##افرت": 5282,
      "ویرو": 5283,
      "چادر": 5284,
      "##خر": 5285,
      "برید": 5286,
      "پاشو": 5287,
      "##اشته": 5288,
      "قهوه": 5289,
      "نیستی": 5290,
      "همسرتون": 5291,
      "پرست": 5292,
      "درباره": 5293,
      "مخال": 5294,
      "تشخیص": 5295,
      "بستگی": 5296,
      "##سالشه": 5297,
      "بهد": 5298,
      "حالش": 5299,
      "##جع": 5300,
      "کنتر": 5301,
      "پزشکی": 5302,
      "شیرین": 5303,
      "ویتامین": 5304,
      "وضعیت": 5305,
      "هارو": 5306,
      "##لف": 5307,
      "خوشبخت": 5308,
      "زندگیت": 5309,
      "##❤❤": 5310,
      "ناراحتی": 5311,
      "نگفتم": 5312,
      "یخچال": 5313,
      "تحصی": 5314,
      "داروه": 5315,
      "حسابی": 5316,
      "نرفتم": 5317,
      "تبریک": 5318,
      "برق": 5319,
      "پارسال": 5320,
      "اولی": 5321,
      "فدات": 5322,
      "##اون": 5323,
      "همینجوری": 5324,
      "کوچولو": 5325,
      "##امم": 5326,
      "##گرد": 5327,
      "پلو": 5328,
      "نمیذ": 5329,
      "حامل": 5330,
      "خاص": 5331,
      "مسافرت": 5332,
      "نبودم": 5333,
      "همینطور": 5334,
      "شیک": 5335,
      "##صب": 5336,
      "وقته": 5337,
      "جاش": 5338,
      "بیست": 5339,
      "نوع": 5340,
      "کتک": 5341,
      "معمولا": 5342,
      "ساخت": 5343,
      "هفته‌ای": 5344,
      "غذای": 5345,
      "مل": 5346,
      "ماهشه": 5347,
      "اوضا": 5348,
      "منتظر": 5349,
      "هوا": 5350,
      "آد": 5351,
      "😂😂😂😂😂": 5352,
      "زرد": 5353,
      "سیر": 5354,
      "،،،": 5355,
      "طبقه": 5356,
      "##اورد": 5357,
      "علت": 5358,
      "تایپ": 5359,
      "دوت": 5360,
      "جفت": 5361,
      "می‌کنم": 5362,
      "سرویس": 5363,
      "قصد": 5364,
      "وم": 5365,
      "میرفتم": 5366,
      "اینج": 5367,
      "۳۰": 5368,
      "استوری": 5369,
      "شخصیت": 5370,
      "##یشون": 5371,
      "##غه": 5372,
      "کودکان": 5373,
      "ذوق": 5374,
      "تما": 5375,
      "قل": 5376,
      "##داره": 5377,
      "همه‌ی": 5378,
      "اینتر": 5379,
      "داشتین": 5380,
      "ناخن": 5381,
      "مز": 5382,
      "پاه": 5383,
      "ریخت": 5384,
      "##ریز": 5385,
      "فض": 5386,
      "مف": 5387,
      "دخالت": 5388,
      "امو": 5389,
      "دخترا": 5390,
      "؟؟؟؟؟": 5391,
      "بزنید": 5392,
      "##یشو": 5393,
      "بسیار": 5394,
      "مسئ": 5395,
      "##خواه": 5396,
      "تاری": 5397,
      "لعنت": 5398,
      "قیا": 5399,
      "میکردن": 5400,
      "خوبیه": 5401,
      "بفرو": 5402,
      "ترب": 5403,
      "##ستون": 5404,
      "شکست": 5405,
      "استراحت": 5406,
      "😭😭😭😭": 5407,
      "##ابر": 5408,
      "دب": 5409,
      "هرروز": 5410,
      "ارسال": 5411,
      "خواستگاری": 5412,
      "کلمه": 5413,
      "اثر": 5414,
      "تجربه‌ای": 5415,
      "برادرم": 5416,
      "تشک": 5417,
      "##لاف": 5418,
      "دوق": 5419,
      "فهمید": 5420,
      "##میشه": 5421,
      "نبوده": 5422,
      "لایک": 5423,
      "##راتون": 5424,
      "وام": 5425,
      "میبره": 5426,
      "##شنبه": 5427,
      "پیاده": 5428,
      "گاز": 5429,
      "همشون": 5430,
      "لذت": 5431,
      "میبین": 5432,
      "##وازم": 5433,
      "اطرافی": 5434,
      "یبوست": 5435,
      "پلا": 5436,
      "هیکل": 5437,
      "التما": 5438,
      "قابل": 5439,
      "مادرشوه": 5440,
      "نمیشم": 5441,
      "##ووو": 5442,
      "دیوار": 5443,
      "فراموش": 5444,
      "خیال": 5445,
      "##دارم": 5446,
      "لج": 5447,
      "متاهل": 5448,
      "شلوار": 5449,
      "اینکارو": 5450,
      "##بد": 5451,
      "پوستم": 5452,
      "نگرفت": 5453,
      "##تومن": 5454,
      "##استم": 5455,
      "مسابقه": 5456,
      "رم": 5457,
      "رفتی": 5458,
      "وع": 5459,
      "میزدم": 5460,
      "عک": 5461,
      "زحمت": 5462,
      "قطره": 5463,
      "کاره": 5464,
      "سلامت": 5465,
      "کوچک": 5466,
      "صمیم": 5467,
      "الله": 5468,
      "قضیه": 5469,
      "انتظار": 5470,
      "عمو": 5471,
      "##کد": 5472,
      "اوضاع": 5473,
      "##ههه": 5474,
      "گلو": 5475,
      "پیشش": 5476,
      "مین": 5477,
      "سفارش": 5478,
      "علای": 5479,
      "الع": 5480,
      "نمیکنن": 5481,
      "##ارض": 5482,
      "دیدین": 5483,
      "مهر": 5484,
      "##جات": 5485,
      "لاک": 5486,
      "##رمی": 5487,
      "کیه": 5488,
      "##اااااااا": 5489,
      "قدر": 5490,
      "خیلیا": 5491,
      "شنبه": 5492,
      "خریده": 5493,
      "چنده": 5494,
      "##وله": 5495,
      "خطرن": 5496,
      "دستور": 5497,
      "بزنیم": 5498,
      "شای": 5499,
      "فاصله": 5500,
      "بیچاره": 5501,
      "##ژه": 5502,
      "##رور": 5503,
      "توهین": 5504,
      "دخترش": 5505,
      "خوشگله": 5506,
      "اکثرا": 5507,
      "کانال": 5508,
      "ساب": 5509,
      "بمیرم": 5510,
      "یانه": 5511,
      "##سر": 5512,
      "انرژی": 5513,
      "آرامش": 5514,
      "بدو": 5515,
      "##ساعت": 5516,
      "تبش": 5517,
      "اینارو": 5518,
      "##ممم": 5519,
      "سالش": 5520,
      "شیط": 5521,
      "خوابم": 5522,
      "همسایه": 5523,
      "##افت": 5524,
      "##ویت": 5525,
      "اصرار": 5526,
      "متنفرم": 5527,
      "##میر": 5528,
      "بخوام": 5529,
      "بت": 5530,
      "تعطی": 5531,
      "هرد": 5532,
      "عی": 5533,
      "میگذره": 5534,
      "خصوصی": 5535,
      "مذه": 5536,
      "نیاد": 5537,
      "وظ": 5538,
      "پسرش": 5539,
      "دوستش": 5540,
      "##روقت": 5541,
      "##راری": 5542,
      "زنده": 5543,
      "دان": 5544,
      "بکنه": 5545,
      "شیشه": 5546,
      "تعداد": 5547,
      "اعتق": 5548,
      "##شتری": 5549,
      "##قیم": 5550,
      "بچگی": 5551,
      "موند": 5552,
      "چرخ": 5553,
      "هیچکس": 5554,
      "##زز": 5555,
      "##کشی": 5556,
      "##دیگه": 5557,
      "خودشم": 5558,
      "عه": 5559,
      "خالم": 5560,
      "محت": 5561,
      "خند": 5562,
      "##خش": 5563,
      "##روب": 5564,
      "می‌کنه": 5565,
      "منظور": 5566,
      "ریخته": 5567,
      "حسی": 5568,
      "دیگران": 5569,
      "لینک": 5570,
      "نمیگه": 5571,
      "مغازه": 5572,
      "##گذ": 5573,
      "لحاظ": 5574,
      "اشن": 5575,
      "روانشناس": 5576,
      "بپرسم": 5577,
      "کنترل": 5578,
      "یار": 5579,
      "مامانای": 5580,
      "بخیر": 5581,
      "##شورم": 5582,
      "کباب": 5583,
      "لکه": 5584,
      "میزنی": 5585,
      "ادرار": 5586,
      "دیدی": 5587,
      "##ربزر": 5588,
      "##زیه": 5589,
      "بخره": 5590,
      "##وشم": 5591,
      "##ولد": 5592,
      "سنی": 5593,
      "عاق": 5594,
      "##حالی": 5595,
      "بچت": 5596,
      "##لیم": 5597,
      "زنی": 5598,
      "عسل": 5599,
      "میبرم": 5600,
      "آل": 5601,
      "امکان": 5602,
      "صاف": 5603,
      "😔😔": 5604,
      "نیمه": 5605,
      "میگفتن": 5606,
      "بیو": 5607,
      "انگی": 5608,
      "راض": 5609,
      "عشقم": 5610,
      "پذیر": 5611,
      "رمان": 5612,
      "دعوام": 5613,
      "ندادم": 5614,
      "صورتی": 5615,
      "میدین": 5616,
      "##ونده": 5617,
      "کارا": 5618,
      "نزار": 5619,
      "سیا": 5620,
      "دون": 5621,
      "؟؟؟؟؟؟": 5622,
      "##🏻♀": 5623,
      "راجع": 5624,
      "##ینگ": 5625,
      "یادش": 5626,
      "هدف": 5627,
      "نمیدم": 5628,
      "بیاره": 5629,
      "اهمیت": 5630,
      "دربی": 5631,
      "گذاشتن": 5632,
      "۱۳": 5633,
      "خورش": 5634,
      "##قیق": 5635,
      "ادب": 5636,
      "دق": 5637,
      "بدنم": 5638,
      "غی": 5639,
      "تماس": 5640,
      "##جاد": 5641,
      "۲۵": 5642,
      "دوستام": 5643,
      "بابت": 5644,
      "ازتون": 5645,
      "غرب": 5646,
      "راستش": 5647,
      "کفش": 5648,
      "توقع": 5649,
      "خوندن": 5650,
      "وجدان": 5651,
      "خونریزی": 5652,
      "زدی": 5653,
      "ببرش": 5654,
      "##لل": 5655,
      "کاربری": 5656,
      "بتونم": 5657,
      "نمیفهم": 5658,
      "میشدم": 5659,
      "خرد": 5660,
      "نرو": 5661,
      "##بب": 5662,
      "بلو": 5663,
      "سط": 5664,
      "هات": 5665,
      "عصر": 5666,
      "##یری": 5667,
      "عدد": 5668,
      "پام": 5669,
      "##اشی": 5670,
      "خونش": 5671,
      "شاغل": 5672,
      "##انیه": 5673,
      "بزارید": 5674,
      "همو": 5675,
      "##تش": 5676,
      "حیا": 5677,
      "یکسال": 5678,
      "فرقی": 5679,
      "اتفاقی": 5680,
      "##ستگی": 5681,
      "کوچیکه": 5682,
      "میزاره": 5683,
      "قیافه": 5684,
      "بلده": 5685,
      "##ویه": 5686,
      "وسی": 5687,
      "ذهنم": 5688,
      "محص": 5689,
      "زخم": 5690,
      "همکار": 5691,
      "شهری": 5692,
      "کشیده": 5693,
      "بفهمه": 5694,
      "غلط": 5695,
      "۴۰": 5696,
      "دنی": 5697,
      "##ینت": 5698,
      "گند": 5699,
      "دومی": 5700,
      "اسکرین": 5701,
      "ولش": 5702,
      "بعدی": 5703,
      "خانوم‌های": 5704,
      "دوقلو": 5705,
      "روزم": 5706,
      "محجبه": 5707,
      "ران": 5708,
      "##ویسم": 5709,
      "##پزی": 5710,
      "جیغ": 5711,
      "میرسه": 5712,
      "اونه": 5713,
      "آشنا": 5714,
      "مارو": 5715,
      "جذب": 5716,
      "##لیت": 5717,
      "عد": 5718,
      "واقعی": 5719,
      "احترامی": 5720,
      "شانس": 5721,
      "وسو": 5722,
      "🤦♀": 5723,
      "مشکی": 5724,
      "ایم": 5725,
      "هزین": 5726,
      "لوازم": 5727,
      "عموم": 5728,
      "نکردن": 5729,
      "طرز": 5730,
      "شکسته": 5731,
      "هنوزم": 5732,
      "چپ": 5733,
      "پولی": 5734,
      "تز": 5735,
      "آی": 5736,
      "##🤔🤔": 5737,
      "تاریخ": 5738,
      "گزار": 5739,
      "میدادم": 5740,
      "تبلی": 5741,
      "خواهشا": 5742,
      "ذره": 5743,
      "جرا": 5744,
      "##روزه": 5745,
      "##کا": 5746,
      "کنند": 5747,
      "مادرت": 5748,
      "نمیزنه": 5749,
      "##لق": 5750,
      "##کدوم": 5751,
      "مقدار": 5752,
      "بکشم": 5753,
      "حساسیت": 5754,
      "پرسیدم": 5755,
      "##😅😅": 5756,
      "نمیرم": 5757,
      "##دونم": 5758,
      "##صر": 5759,
      "نمیکردم": 5760,
      "😐😐": 5761,
      "داروی": 5762,
      "بابات": 5763,
      "دایی": 5764,
      "سفره": 5765,
      "نامزدی": 5766,
      "##گیرم": 5767,
      "نهایت": 5768,
      "عمر": 5769,
      "نتونستم": 5770,
      "خواهرش": 5771,
      "روانی": 5772,
      "##سن": 5773,
      "واین": 5774,
      "هستند": 5775,
      "مردی": 5776,
      "بور": 5777,
      "قدیم": 5778,
      "تپ": 5779,
      "زودی": 5780,
      "##جون": 5781,
      "بنویس": 5782,
      "التماس": 5783,
      "سنگین": 5784,
      "قند": 5785,
      "سفت": 5786,
      "ببینین": 5787,
      "آینده": 5788,
      "خدم": 5789,
      "سیسم": 5790,
      "یل": 5791,
      "##آن": 5792,
      "حرفای": 5793,
      "ایجاد": 5794,
      "##صت": 5795,
      "نمیزاره": 5796,
      "حسرت": 5797,
      "##جان": 5798,
      "خاطره": 5799,
      "پسری": 5800,
      "نشسته": 5801,
      "قاطی": 5802,
      "نشن": 5803,
      "هروقت": 5804,
      "مغز": 5805,
      "گیاهی": 5806,
      "سبک": 5807,
      "ژل": 5808,
      "تربیت": 5809,
      "شماها": 5810,
      "نخور": 5811,
      "شل": 5812,
      "تروخدا": 5813,
      "گشن": 5814,
      "اشکال": 5815,
      "بدنش": 5816,
      "مجازی": 5817,
      "##فقط": 5818,
      "طور": 5819,
      "خیس": 5820,
      "ظاه": 5821,
      "دختری": 5822,
      "😁😁😁": 5823,
      "##😥😥": 5824,
      "کثیف": 5825,
      "حدی": 5826,
      "##ارید": 5827,
      "##🥺🥺": 5828,
      "دراز": 5829,
      "مارک": 5830,
      "گم": 5831,
      "بخوری": 5832,
      "بکشه": 5833,
      "تبلیغ": 5834,
      "دستگاه": 5835,
      "جذاب": 5836,
      "اخرش": 5837,
      "گرفتی": 5838,
      "کاب": 5839,
      "شهرستان": 5840,
      "جیش": 5841,
      "عرض": 5842,
      "پخت": 5843,
      "خواهرشوهر": 5844,
      "خونتون": 5845,
      "##الش": 5846,
      "حاضر": 5847,
      "متولد": 5848,
      "برمیگ": 5849,
      "عوارض": 5850,
      "حسود": 5851,
      "بخش": 5852,
      "اختلاف": 5853,
      "باشگاه": 5854,
      "میدید": 5855,
      "دفع": 5856,
      "فار": 5857,
      "اعتقاد": 5858,
      "شماهم": 5859,
      "نمیدن": 5860,
      "##‌ام": 5861,
      "##فند": 5862,
      "زندگیش": 5863,
      "اذیتم": 5864,
      "##شتی": 5865,
      "نیومده": 5866,
      "مشهد": 5867,
      "بای": 5868,
      "موی": 5869,
      "نمیگم": 5870,
      "سرط": 5871,
      "چسب": 5872,
      "##منم": 5873,
      "آقای": 5874,
      "##وط": 5875,
      "برعکس": 5876,
      "جمله": 5877,
      "##حد": 5878,
      "بزرگه": 5879,
      "بمون": 5880,
      "سوره": 5881,
      "اونوقت": 5882,
      "##جر": 5883,
      "فلانی": 5884,
      "##ترک": 5885,
      "معج": 5886,
      "شمار": 5887,
      "زمانی": 5888,
      "راستی": 5889,
      "شنید": 5890,
      "##یکی": 5891,
      "##اما": 5892,
      "دستت": 5893,
      "نظرت": 5894,
      "##ادش": 5895,
      "نوشت": 5896,
      "##روزم": 5897,
      "افتادم": 5898,
      "نمیکرد": 5899,
      "قضا": 5900,
      "محکم": 5901,
      "میدونید": 5902,
      "تاز": 5903,
      "##فرو": 5904,
      "شاه": 5905,
      "بگیرن": 5906,
      "اونج": 5907,
      "بگیرید": 5908,
      "قانون": 5909,
      "میتونید": 5910,
      "##ستین": 5911,
      "##لاح": 5912,
      "خوبم": 5913,
      "رشت": 5914,
      "##خون": 5915,
      "نمیش": 5916,
      "پسرا": 5917,
      "بستری": 5918,
      "گوجه": 5919,
      "رفی": 5920,
      "سیسمونی": 5921,
      "سریال": 5922,
      "کافیه": 5923,
      "جامعه": 5924,
      "گردن": 5925,
      "خونه‌ی": 5926,
      "نیت": 5927,
      "##پزشک": 5928,
      "بخند": 5929,
      "چجوریه": 5930,
      "طبق": 5931,
      "پدرش": 5932,
      "مامانت": 5933,
      "راهکار": 5934,
      "سرت": 5935,
      "استفراغ": 5936,
      "نپ": 5937,
      "حرکت": 5938,
      "##ریان": 5939,
      "داشتید": 5940,
      "شاالله": 5941,
      "##😐😐😐😐": 5942,
      "سوخت": 5943,
      "ایده": 5944,
      "مواف": 5945,
      "نوبت": 5946,
      "تفاوت": 5947,
      "میلی": 5948,
      "چای": 5949,
      "ورم": 5950,
      "##ییلی": 5951,
      "نگر": 5952,
      "مختلف": 5953,
      "نمونه": 5954,
      "##😂😂😂😂": 5955,
      "میخورد": 5956,
      "لیزر": 5957,
      "غم": 5958,
      "قلبم": 5959,
      "ویروس": 5960,
      "معلومه": 5961,
      "##ایید": 5962,
      "##اخت": 5963,
      "##بن": 5964,
      "میریزه": 5965,
      "نابود": 5966,
      "##بم": 5967,
      "خرابه": 5968,
      "درآمد": 5969,
      "گزارش": 5970,
      "بیه": 5971,
      "اینجوریه": 5972,
      "راحتی": 5973,
      "ترکی": 5974,
      "تنبلی": 5975,
      "مادرتون": 5976,
      "تلو": 5977,
      "##دت": 5978,
      "ریزش": 5979,
      "ببینی": 5980,
      "بانک": 5981,
      "میچ": 5982,
      "گلا": 5983,
      "عضو": 5984,
      "جدیدا": 5985,
      "برگرد": 5986,
      "اطلاعات": 5987,
      "خونواده": 5988,
      "پیشم": 5989,
      "میگرفت": 5990,
      "ببره": 5991,
      "۵۰": 5992,
      "قدیمی": 5993,
      "سایز": 5994,
      "آشپز": 5995,
      "روحی": 5996,
      "پارک": 5997,
      "خارجی": 5998,
      "سالی": 5999,
      "اجتما": 6000,
      "بنداز": 6001,
      "##دو": 6002,
      "##دای": 6003,
      "اور": 6004,
      "معنی": 6005,
      "##مالی": 6006,
      "بردمش": 6007,
      "##ونیم": 6008,
      "مگ": 6009,
      "##غال": 6010,
      "خستم": 6011,
      "خودکشی": 6012,
      "شکایت": 6013,
      "علایم": 6014,
      "وش": 6015,
      "میگف": 6016,
      "##بش": 6017,
      "چقدره": 6018,
      "امپول": 6019,
      "می‌ب": 6020,
      "عقدم": 6021,
      "تعی": 6022,
      "فکری": 6023,
      "##بان": 6024,
      "انگشت": 6025,
      "زه": 6026,
      "بیکار": 6027,
      "احتی": 6028,
      "بزارین": 6029,
      "جلسه": 6030,
      "##ویز": 6031,
      "گوگل": 6032,
      "تیر": 6033,
      "##گرافی": 6034,
      "بودید": 6035,
      "زندگیتون": 6036,
      "##نمی": 6037,
      "خیلیم": 6038,
      "بزنن": 6039,
      "##اسه": 6040,
      "##والی": 6041,
      "چرت": 6042,
      "نمیشد": 6043,
      "##ینا": 6044,
      "سود": 6045,
      "طولانی": 6046,
      "فرستادم": 6047,
      "تعیین": 6048,
      "اصفه": 6049,
      "میبینی": 6050,
      "گیری": 6051,
      "یدونه": 6052,
      "عزیزان": 6053,
      "بکش": 6054,
      "پاس": 6055,
      "وپ": 6056,
      "بمونم": 6057,
      "##چون": 6058,
      "نع": 6059,
      "مذهبی": 6060,
      "بدبختی": 6061,
      "بعداز": 6062,
      "##ائل": 6063,
      "##اشتن": 6064,
      "بیشع": 6065,
      "انسان": 6066,
      "توهم": 6067,
      "اصلی": 6068,
      "واتسا": 6069,
      "ازاین": 6070,
      "دقت": 6071,
      "##تیه": 6072,
      "تشن": 6073,
      "سگ": 6074,
      "کشور": 6075,
      "ایی": 6076,
      "##اااااا": 6077,
      "احم": 6078,
      "اولم": 6079,
      "فری": 6080,
      "واا": 6081,
      "پلی": 6082,
      "##لاین": 6083,
      "تحوی": 6084,
      "نار": 6085,
      "تحت": 6086,
      "تشکر": 6087,
      "##یفه": 6088,
      "جهی": 6089,
      "سم": 6090,
      "ماکار": 6091,
      "بخوای": 6092,
      "نصی": 6093,
      "چجور": 6094,
      "##ونن": 6095,
      "خن": 6096,
      "##فعه": 6097,
      "تعجب": 6098,
      "عرق": 6099,
      "سپ": 6100,
      "روزا": 6101,
      "ریختم": 6102,
      "چیا": 6103,
      "سرگرم": 6104,
      "میشیم": 6105,
      "کا": 6106,
      "ضعیف": 6107,
      "بارم": 6108,
      "همچنین": 6109,
      "دهنش": 6110,
      "برند": 6111,
      "میگیری": 6112,
      "پید": 6113,
      "نوشتم": 6114,
      "محلی": 6115,
      "نره": 6116,
      "منی": 6117,
      "##سیم": 6118,
      "خیابون": 6119,
      "چندین": 6120,
      "فکرم": 6121,
      "جادو": 6122,
      "نینی": 6123,
      "کره": 6124,
      "##زل": 6125,
      "روت": 6126,
      "صمیمی": 6127,
      "برین": 6128,
      "گرفتیم": 6129,
      "رایگان": 6130,
      "صفحه": 6131,
      "##چار": 6132,
      "بگذ": 6133,
      "آرزو": 6134,
      "خیییلی": 6135,
      "حلقه": 6136,
      "افسرده": 6137,
      "پره": 6138,
      "تلگرام": 6139,
      "چراغ": 6140,
      "دول": 6141,
      "عرب": 6142,
      "وکی": 6143,
      "##تری": 6144,
      "آموزش": 6145,
      "##رنگ": 6146,
      "بشیم": 6147,
      "ها": 6148,
      "عج": 6149,
      "چشمم": 6150,
      "##طرف": 6151,
      "میرس": 6152,
      "سرطان": 6153,
      "داماد": 6154,
      "##زیون": 6155,
      "برادرشوهرم": 6156,
      "غربال": 6157,
      "##😭😭😭😭": 6158,
      "##کککک": 6159,
      "دوه": 6160,
      "قیمتش": 6161,
      "##گفتم": 6162,
      "شپش": 6163,
      "ضمن": 6164,
      "##وها": 6165,
      "##نجی": 6166,
      "خوشک": 6167,
      "بادم": 6168,
      "میذاره": 6169,
      "##اژ": 6170,
      "ارو": 6171,
      "توام": 6172,
      "بام": 6173,
      "قیاف": 6174,
      "##اهش": 6175,
      "سالاد": 6176,
      "خاموش": 6177,
      "شالله": 6178,
      "##عتی": 6179,
      "حضرت": 6180,
      "برده": 6181,
      "اوکی": 6182,
      "عط": 6183,
      "بردار": 6184,
      "##فیف": 6185,
      "قطعا": 6186,
      "باغ": 6187,
      "##سرم": 6188,
      "چایی": 6189,
      "دلتون": 6190,
      "پروف": 6191,
      "حیاط": 6192,
      "سفر": 6193,
      "مشورت": 6194,
      "عکسم": 6195,
      "العاده": 6196,
      "کامنت": 6197,
      "تشکیل": 6198,
      "دخترمو": 6199,
      "ثابت": 6200,
      "اومدیم": 6201,
      "موج": 6202,
      "مراسم": 6203,
      "ارامش": 6204,
      "بخوابم": 6205,
      "ترسیدم": 6206,
      "##اتی": 6207,
      "داییم": 6208,
      "واتساپ": 6209,
      "نور": 6210,
      "##شده": 6211,
      "عمه": 6212,
      "چربی": 6213,
      "معا": 6214,
      "شات": 6215,
      "متفاوت": 6216,
      "##لمون": 6217,
      "عقل": 6218,
      "خونی": 6219,
      "فرهنگ": 6220,
      "جوابشو": 6221,
      "##وام": 6222,
      "نمیتونی": 6223,
      "بخریم": 6224,
      "له": 6225,
      "وال": 6226,
      "پیت": 6227,
      "خانومایی": 6228,
      "اطرافیان": 6229,
      "شرم": 6230,
      "##دل": 6231,
      "تهیه": 6232,
      "##اکه": 6233,
      "میو": 6234,
      "##ه‌ات": 6235,
      "بخواب": 6236,
      "بزاره": 6237,
      "میخرم": 6238,
      "سکه": 6239,
      "بارداریم": 6240,
      "میفرستم": 6241,
      "قربون": 6242,
      "تولدم": 6243,
      "##ران": 6244,
      "##گید": 6245,
      "اماده": 6246,
      "بهمون": 6247,
      "کالری": 6248,
      "جلوگیری": 6249,
      "سرو": 6250,
      "ششم": 6251,
      "گوشیم": 6252,
      "قضاوت": 6253,
      "آز": 6254,
      "سیاست": 6255,
      "ششمی": 6256,
      "استامین": 6257,
      "خوابید": 6258,
      "نین": 6259,
      "بچه‌ی": 6260,
      "تیره": 6261,
      "چندسال": 6262,
      "مثه": 6263,
      "معجزه": 6264,
      "دعوای": 6265,
      "##🙄🙄": 6266,
      "##خوان": 6267,
      "!!!!": 6268,
      "##یدونم": 6269,
      "نترس": 6270,
      "روب": 6271,
      "##جم": 6272,
      "اینهمه": 6273,
      "اقت": 6274,
      "مستقل": 6275,
      "نکنی": 6276,
      "میخوردم": 6277,
      "باهات": 6278,
      "نز": 6279,
      "پل": 6280,
      "رض": 6281,
      "تلخ": 6282,
      "انداخت": 6283,
      "مربوط": 6284,
      "مادربزر": 6285,
      "خرم": 6286,
      "اوردم": 6287,
      "کیست": 6288,
      "مشکو": 6289,
      "ایراد": 6290,
      "آماده": 6291,
      "شیم": 6292,
      "شکل": 6293,
      "دکترا": 6294,
      "قربونت": 6295,
      "ذهن": 6296,
      "##بری": 6297,
      "جونم": 6298,
      "عکسشو": 6299,
      "##گز": 6300,
      "کیسه": 6301,
      "موهامو": 6302,
      "آخرش": 6303,
      "مشغ": 6304,
      "صاح": 6305,
      "مستقیم": 6306,
      "ترشح": 6307,
      "##شوره": 6308,
      "##ارین": 6309,
      "##کرده": 6310,
      "حیف": 6311,
      "برامون": 6312,
      "پارچه": 6313,
      "دوساله": 6314,
      "##طور": 6315,
      "سون": 6316,
      "انتق": 6317,
      "##فوع": 6318,
      "##خند": 6319,
      "##خوری": 6320,
      "##واع": 6321,
      "هرکسی": 6322,
      "##رمون": 6323,
      "پماد": 6324,
      "بریزم": 6325,
      "آمپول": 6326,
      "پیشرفت": 6327,
      "شاءالله": 6328,
      "شایدم": 6329,
      "##روه": 6330,
      "عصبانی": 6331,
      "##دام": 6332,
      "بهونه": 6333,
      "وحشتن": 6334,
      "دسته": 6335,
      "سلیقه": 6336,
      "ضرب": 6337,
      "##ررر": 6338,
      "##وفن": 6339,
      "میریزم": 6340,
      "اونی": 6341,
      "هرچ": 6342,
      "دعای": 6343,
      "خواستی": 6344,
      "رق": 6345,
      "کنارش": 6346,
      "جارو": 6347,
      "هامون": 6348,
      "##!!!!": 6349,
      "متوسط": 6350,
      "جشن": 6351,
      "##😋😋": 6352,
      "چهل": 6353,
      "##جیح": 6354,
      "##ییییی": 6355,
      "##لود": 6356,
      "نداشتن": 6357,
      "طرفی": 6358,
      "نرس": 6359,
      "##گاهی": 6360,
      "توم": 6361,
      "##تیک": 6362,
      "پاره": 6363,
      "##قات": 6364,
      "برسم": 6365,
      "خوشش": 6366,
      "##ذرت": 6367,
      "برابر": 6368,
      "همگی": 6369,
      "النگ": 6370,
      "توان": 6371,
      "مک": 6372,
      "میارم": 6373,
      "دچار": 6374,
      "۲۲": 6375,
      "لرز": 6376,
      "ندید": 6377,
      "##دددد": 6378,
      "شخصی": 6379,
      "میگید": 6380,
      "دارند": 6381,
      "دخترای": 6382,
      "بخونید": 6383,
      "بدترین": 6384,
      "فرصت": 6385,
      "بوس": 6386,
      "متر": 6387,
      "مجردی": 6388,
      "آسی": 6389,
      "وص": 6390,
      "##شوی": 6391,
      "سونوگرافی": 6392,
      "دهه": 6393,
      "##😪😪": 6394,
      "##کنی": 6395,
      "رضا": 6396,
      "##چین": 6397,
      "بشور": 6398,
      "دولتی": 6399,
      "ظاهر": 6400,
      "میخای": 6401,
      "میکردی": 6402,
      "شست": 6403,
      "وسیله": 6404,
      "رود": 6405,
      "زندگیمون": 6406,
      "بجای": 6407,
      "شوهراتون": 6408,
      "بابای": 6409,
      "اتو": 6410,
      "ره": 6411,
      "همتون": 6412,
      "پریودی": 6413,
      "عاد": 6414,
      "تیپ": 6415,
      "تازگی": 6416,
      "آمد": 6417,
      "فاط": 6418,
      "##روف": 6419,
      "وحشتناک": 6420,
      "میفته": 6421,
      "خانم‌های": 6422,
      "چاقی": 6423,
      "##راخ": 6424,
      "محی": 6425,
      "تفری": 6426,
      "نگیر": 6427,
      "ازب": 6428,
      "گذاشتی": 6429,
      "قسط": 6430,
      "هرکس": 6431,
      "جنگ": 6432,
      "##لاکس": 6433,
      "جال": 6434,
      "شوهره": 6435,
      "##وشه": 6436,
      "درا": 6437,
      "مدفوع": 6438,
      "مهری": 6439,
      "ختم": 6440,
      "وار": 6441,
      "غربالگری": 6442,
      "اها": 6443,
      "همسای": 6444,
      "##کیه": 6445,
      "##چیک": 6446,
      "رفیق": 6447,
      "سره": 6448,
      "##تیش": 6449,
      "میخورن": 6450,
      "مرح": 6451,
      "##البته": 6452,
      "##ابل": 6453,
      "##رتو": 6454,
      "بتونه": 6455,
      "ضای": 6456,
      "ضعف": 6457,
      "چاد": 6458,
      "راضیم": 6459,
      "##کیلو": 6460,
      "خانمها": 6461,
      "##دین": 6462,
      "##مین": 6463,
      "بفرستم": 6464,
      "مخالف": 6465,
      "کور": 6466,
      "حدس": 6467,
      "تلفن": 6468,
      "##صیر": 6469,
      "##کنید": 6470,
      "بزرگم": 6471,
      "خوبن": 6472,
      "ارزون": 6473,
      "برنام": 6474,
      "گلی": 6475,
      "کنج": 6476,
      "روزای": 6477,
      "خواسته": 6478,
      "نمیگیره": 6479,
      "فرار": 6480,
      "ساز": 6481,
      "بچمو": 6482,
      "ببرمش": 6483,
      "میکردین": 6484,
      "بدنیا": 6485,
      "نمیخام": 6486,
      "سکوت": 6487,
      "مجل": 6488,
      "خوشبحال": 6489,
      "##فک": 6490,
      "تلف": 6491,
      "##بره": 6492,
      "##هفته": 6493,
      "درجه": 6494,
      "همسرش": 6495,
      "نمیشن": 6496,
      "رفع": 6497,
      "خانمی": 6498,
      "اطراف": 6499,
      "پایه": 6500,
      "سح": 6501,
      "هرکاری": 6502,
      "رسم": 6503,
      "صداش": 6504,
      "جوون": 6505,
      "دود": 6506,
      "امد": 6507,
      "##جن": 6508,
      "معذرت": 6509,
      "##لمی": 6510,
      "##موقع": 6511,
      "میشین": 6512,
      "##بل": 6513,
      "ماهگی": 6514,
      "##بع": 6515,
      "تخمک": 6516,
      "##اهایی": 6517,
      "وابسته": 6518,
      "اکثر": 6519,
      "جریان": 6520,
      "ایشالله": 6521,
      "دندان": 6522,
      "وزنم": 6523,
      "پرد": 6524,
      "۱۹": 6525,
      "##ناک": 6526,
      "شامپو": 6527,
      "ارش": 6528,
      "باشوهرم": 6529,
      "مجبورم": 6530,
      "فلفل": 6531,
      "چندبار": 6532,
      "حجاب": 6533,
      "نشست": 6534,
      "اجاره": 6535,
      "واکن": 6536,
      "عزیزد": 6537,
      "##شوهرم": 6538,
      "##کتر": 6539,
      "خوراکی": 6540,
      "اعلام": 6541,
      "میگین": 6542,
      "بزاری": 6543,
      "مقای": 6544,
      "##تن": 6545,
      "##😒😒": 6546,
      "افتضا": 6547,
      "ریا": 6548,
      "انواع": 6549,
      "اقتص": 6550,
      "آزاد": 6551,
      "فوری": 6552,
      "شدین": 6553,
      "رسیدم": 6554,
      "کافی": 6555,
      "دعوامون": 6556,
      "بمن": 6557,
      "##سون": 6558,
      "##اشک": 6559,
      "جدایی": 6560,
      "نفهمیدم": 6561,
      "کبود": 6562,
      "دوسه": 6563,
      "##نمون": 6564,
      "جمعه": 6565,
      "ساد": 6566,
      "بسا": 6567,
      "😑😑😑": 6568,
      "اگرم": 6569,
      "حرم": 6570,
      "حاملگی": 6571,
      "شفا": 6572,
      "ترجیح": 6573,
      "##میخو": 6574,
      "تحقیق": 6575,
      "تگ": 6576,
      "تنهام": 6577,
      "##سیس": 6578,
      "اموزش": 6579,
      "رت": 6580,
      "نداده": 6581,
      "پسرمو": 6582,
      "عجب": 6583,
      "چر": 6584,
      "محد": 6585,
      "نگی": 6586,
      "دائ": 6587,
      "گوشیش": 6588,
      "##وال": 6589,
      "نگرانی": 6590,
      "صاد": 6591,
      "تعطیل": 6592,
      "جوابش": 6593,
      "بردن": 6594,
      "تغذ": 6595,
      "عمم": 6596,
      "اث": 6597,
      "مریضی": 6598,
      "سکته": 6599,
      "شوهرشون": 6600,
      "میدونن": 6601,
      "استامینوفن": 6602,
      "##ردن": 6603,
      "##گونه": 6604,
      "۲۰۰": 6605,
      "عروسیم": 6606,
      "ببری": 6607,
      "نمیدونستم": 6608,
      "سوالی": 6609,
      "بپوشم": 6610,
      "اومدی": 6611,
      "تومان": 6612,
      "بیمه": 6613,
      "غل": 6614,
      "وسواس": 6615,
      "##پر": 6616,
      "اقای": 6617,
      "هیش": 6618,
      "سرماخورد": 6619,
      "دوستت": 6620,
      "قابلمه": 6621,
      "نگا": 6622,
      "قار": 6623,
      "دوهفته": 6624,
      "مجردم": 6625,
      "منکه": 6626,
      "بگذره": 6627,
      "بتا": 6628,
      "عال": 6629,
      "ریه": 6630,
      "نخر": 6631,
      "مادری": 6632,
      "##مات": 6633,
      "##فال": 6634,
      "شناس": 6635,
      "زیتون": 6636,
      "تقصیر": 6637,
      "سام": 6638,
      "میمون": 6639,
      "درمانی": 6640,
      "الی": 6641,
      "ایه": 6642,
      "حدودا": 6643,
      "بدش": 6644,
      "نامه": 6645,
      "حمام": 6646,
      "بنظ": 6647,
      "خطرناکه": 6648,
      "صاحب": 6649,
      "##ختر": 6650,
      "وااای": 6651,
      "محصو": 6652,
      "😁😁": 6653,
      "خوشبختی": 6654,
      "معن": 6655,
      "مهد": 6656,
      "بالاتر": 6657,
      "داغونم": 6658,
      "تحصیل": 6659,
      "چیو": 6660,
      "یکیش": 6661,
      "اطلاع": 6662,
      "واژن": 6663,
      "دادگاه": 6664,
      "چهره": 6665,
      "چیکارا": 6666,
      "نظرات": 6667,
      "فرداش": 6668,
      "خونگی": 6669,
      "میارن": 6670,
      "خیلیییی": 6671,
      "خانمایی": 6672,
      "بدونی": 6673,
      "اشپز": 6674,
      "##خوب": 6675,
      "##گین": 6676,
      "##خورده": 6677,
      "خیلییی": 6678,
      "موق": 6679,
      "ترشی": 6680,
      "آپ": 6681,
      "عاشقانه": 6682,
      "نهار": 6683,
      "##انا": 6684,
      "جراحی": 6685,
      "مراقب": 6686,
      "اجتماعی": 6687,
      "تحویل": 6688,
      "مفید": 6689,
      "تزریق": 6690,
      "هوای": 6691,
      "تخمد": 6692,
      "وایی": 6693,
      "۲۸": 6694,
      "محیط": 6695,
      "عقده": 6696,
      "سابقه": 6697,
      "وک": 6698,
      "##فهمی": 6699,
      "اسن": 6700,
      "😢😢": 6701,
      "خز": 6702,
      "مبارکه": 6703,
      "##ومدن": 6704,
      "چشمش": 6705,
      "مزه": 6706,
      "طرح": 6707,
      "معتاد": 6708,
      "بیفته": 6709,
      "هامو": 6710,
      "گوشه": 6711,
      "##ازده": 6712,
      "احتیاج": 6713,
      "اوقات": 6714,
      "حسادت": 6715,
      "آفر": 6716,
      "نگم": 6717,
      "بیبی": 6718,
      "شیش": 6719,
      "کاشت": 6720,
      "نمی‌دونم": 6721,
      "شلوغ": 6722,
      "##؟؟؟؟": 6723,
      "##دون": 6724,
      "اینترنت": 6725,
      "میکردیم": 6726,
      "🤦🏻♀": 6727,
      "افراد": 6728,
      "##گرفت": 6729,
      "##هاز": 6730,
      "درص": 6731,
      "اونقدر": 6732,
      "زنداد": 6733,
      "زاده": 6734,
      "عیدی": 6735,
      "خوشحالم": 6736,
      "پنیر": 6737,
      "نکنین": 6738,
      "تصور": 6739,
      "اختی": 6740,
      "نزدم": 6741,
      "##🙏🙏": 6742,
      "هوی": 6743,
      "دزد": 6744,
      "##ادل": 6745,
      "مطب": 6746,
      "عصبان": 6747,
      "وخ": 6748,
      "##قق": 6749,
      "کارمند": 6750,
      "##طه": 6751,
      "خانوادگی": 6752,
      "بمی": 6753,
      "پخش": 6754,
      "حوصلم": 6755,
      "نصب": 6756,
      "کنکوری": 6757,
      "تشریف": 6758,
      "چیزه": 6759,
      "مدرک": 6760,
      "ابروه": 6761,
      "عزیزدلم": 6762,
      "مژه": 6763,
      "دادیم": 6764,
      "جهت": 6765,
      "نکردی": 6766,
      "صرف": 6767,
      "کارایی": 6768,
      "کشیدن": 6769,
      "کمبود": 6770,
      "آخرین": 6771,
      "مواظ": 6772,
      "لبخند": 6773,
      "خودتم": 6774,
      "##عن": 6775,
      "بیخود": 6776,
      "ندادن": 6777,
      "برداشت": 6778,
      "پذیرایی": 6779,
      "میخوری": 6780,
      "بپزم": 6781,
      "انگلی": 6782,
      "دخترت": 6783,
      "خریدن": 6784,
      "صفر": 6785,
      "می‌خوام": 6786,
      "رح": 6787,
      "بورس": 6788,
      "همدیگه": 6789,
      "مستاج": 6790,
      "هردو": 6791,
      "کیفیت": 6792,
      "قران": 6793,
      "##یاین": 6794,
      "مادره": 6795,
      "یواش": 6796,
      "روسری": 6797,
      "توکل": 6798,
      "##خودم": 6799,
      "اصلاح": 6800,
      "شادی": 6801,
      "##ایین": 6802,
      "##زمان": 6803,
      "بهداشت": 6804,
      "اونجوری": 6805,
      "🤣🤣": 6806,
      "##خانه": 6807,
      "عروسم": 6808,
      "اقوام": 6809,
      "ضربه": 6810,
      "کات": 6811,
      "ماکارونی": 6812,
      "عب": 6813,
      "##فش": 6814,
      "حقی": 6815,
      "فالو": 6816,
      "قفل": 6817,
      "##وبه": 6818,
      "موز": 6819,
      "!؟": 6820,
      "خوراک": 6821,
      "نگرفتم": 6822,
      "بالاست": 6823,
      "##فتی": 6824,
      "سوراخ": 6825,
      "۲۴": 6826,
      "باحال": 6827,
      "روابط": 6828,
      "ارث": 6829,
      "میندازه": 6830,
      "وصل": 6831,
      "نمیدونه": 6832,
      "بزرگی": 6833,
      "باردارا": 6834,
      "##کز": 6835,
      "همینو": 6836,
      "ویار": 6837,
      "خخخخخ": 6838,
      "مطمئنم": 6839,
      "حسین": 6840,
      "##بازی": 6841,
      "انگیزه": 6842,
      "خارش": 6843,
      "کاغ": 6844,
      "مچ": 6845,
      "بزاریم": 6846,
      "مسائل": 6847,
      "تشنج": 6848,
      "##خه": 6849,
      "قرآن": 6850,
      "ناام": 6851,
      "##اع": 6852,
      "یچی": 6853,
      "برگشتم": 6854,
      "حجم": 6855,
      "اینده": 6856,
      "دلیلش": 6857,
      "بخوریم": 6858,
      "مدلی": 6859,
      "باورم": 6860,
      "بچتون": 6861,
      "سالته": 6862,
      "جهیزیه": 6863,
      "مراق": 6864,
      "بچه‌ام": 6865,
      "سطح": 6866,
      "مشترک": 6867,
      "مقصر": 6868,
      "قهوه‌ای": 6869,
      "دردش": 6870,
      "##وبیا": 6871,
      "##ستانی": 6872,
      "مقایسه": 6873,
      "منزل": 6874,
      "فاطمه": 6875,
      "ندیده": 6876,
      "نری": 6877,
      "آورده": 6878,
      "طعم": 6879,
      "بلوغ": 6880,
      "نشم": 6881,
      "اهنگ": 6882,
      "غریب": 6883,
      "سرماخوردگی": 6884,
      "افط": 6885,
      "پیتزا": 6886,
      "تپل": 6887,
      "میدیم": 6888,
      "جار": 6889,
      "نشستم": 6890,
      "نگفته": 6891,
      "دوازده": 6892,
      "ساک": 6893,
      "نمیکنی": 6894,
      "تلوی": 6895,
      "خانم‌ها": 6896,
      "میزارن": 6897,
      "##قش": 6898,
      "##وهر": 6899,
      "کابینت": 6900,
      "##میکنه": 6901,
      "دوری": 6902,
      "پیچ": 6903,
      "##ژن": 6904,
      "##توان": 6905,
      "متنفر": 6906,
      "##یشن": 6907,
      "برمید": 6908,
      "هوس": 6909,
      "گری": 6910,
      "وظیفه": 6911,
      "بلکه": 6912,
      "رسیده": 6913,
      "##اعت": 6914,
      "قرمه": 6915,
      "ربط": 6916,
      "شور": 6917,
      "دوش": 6918,
      "محض": 6919,
      "خواهی": 6920,
      "محصولات": 6921,
      "طاق": 6922,
      "بخری": 6923,
      "تار": 6924,
      "آشتی": 6925,
      "تیک": 6926,
      "وعده": 6927,
      "کسیو": 6928,
      "رنگش": 6929,
      "چکارکنم": 6930,
      "سردرد": 6931,
      "ریشه": 6932,
      "تایپیک": 6933,
      "##😍😍😍😍": 6934,
      "واز": 6935,
      "پتو": 6936,
      "##پا": 6937,
      "##رنگی": 6938,
      "کمرم": 6939,
      "چهارم": 6940,
      "غول": 6941,
      "باره": 6942,
      "لعنتی": 6943,
      "اسمشو": 6944,
      "راسته": 6945,
      "صبحانه": 6946,
      "نمیک": 6947,
      "کاغذ": 6948,
      "خبری": 6949,
      "ملی": 6950,
      "طریق": 6951,
      "##وران": 6952,
      "معاینه": 6953,
      "##لین": 6954,
      "##ئی": 6955,
      "زوده": 6956,
      "لحظ": 6957,
      "اولا": 6958,
      "عیب": 6959,
      "برمیگرده": 6960,
      "##۱۰": 6961,
      "زندگیه": 6962,
      "ارایشگاه": 6963,
      "خفه": 6964,
      "##انسی": 6965,
      "مشغول": 6966,
      "اخلاقش": 6967,
      "##تنه": 6968,
      "خست": 6969,
      "مطل": 6970,
      "گرمی": 6971,
      "اورژ": 6972,
      "هیشکی": 6973,
      "نیستیم": 6974,
      "حرفاش": 6975,
      "هرم": 6976,
      "نفسم": 6977,
      "خواهرت": 6978,
      "کجایی": 6979,
      "باط": 6980,
      "##نننن": 6981,
      "وحشت": 6982,
      "نشو": 6983,
      "##وون": 6984,
      "##ترم": 6985,
      "##رشب": 6986,
      "ندارین": 6987,
      "بشدت": 6988,
      "بغلش": 6989,
      "هورم": 6990,
      "##زیم": 6991,
      "اسفند": 6992,
      "زهرا": 6993,
      "امض": 6994,
      "دکترش": 6995,
      "یادمه": 6996,
      "خونده": 6997,
      "##چیکار": 6998,
      "دانشجو": 6999,
      "فرا": 7000,
      "##افظ": 7001,
      "آشپزی": 7002,
      "خوان": 7003,
      "خانمه": 7004,
      "کلیه": 7005,
      "هاشو": 7006,
      "دبیر": 7007,
      "ضایع": 7008,
      "صادق": 7009,
      "نوار": 7010,
      "مراقبت": 7011,
      "اونور": 7012,
      "بخاط": 7013,
      "##فتاب": 7014,
      "##ابد": 7015,
      "کلافه": 7016,
      "سرکه": 7017,
      "##خوره": 7018,
      "اسباب": 7019,
      "گلاب": 7020,
      "دلشون": 7021,
      "کلاه": 7022,
      "اوه": 7023,
      "##ناس": 7024,
      "اونموقع": 7025,
      "دکتری": 7026,
      "مزا": 7027,
      "دادین": 7028,
      "۶۰": 7029,
      "##😝😝": 7030,
      "کاراش": 7031,
      "چندروز": 7032,
      "##دیل": 7033,
      "##👻👻": 7034,
      "##نوشت": 7035,
      "اینک": 7036,
      "بخوابه": 7037,
      "میخوابه": 7038,
      "مظ": 7039,
      "نمیم": 7040,
      "##ومدم": 7041,
      "زنا": 7042,
      "عذر": 7043,
      "##فف": 7044,
      "میترسه": 7045,
      "موهاش": 7046,
      "##قیر": 7047,
      "دسشویی": 7048,
      "##😳😳": 7049,
      "کلم": 7050,
      "پسرت": 7051,
      "کند": 7052,
      "خخخخ": 7053,
      "##😕😕": 7054,
      "کارهای": 7055,
      "بیشتره": 7056,
      "شونه": 7057,
      "میدونین": 7058,
      "خوشی": 7059,
      "فعا": 7060,
      "قدش": 7061,
      "اعتر": 7062,
      "خورشت": 7063,
      "حمایت": 7064,
      "هرجا": 7065,
      "سس": 7066,
      "احمق": 7067,
      "تفریح": 7068,
      "زایمانم": 7069,
      "دستمال": 7070,
      "سند": 7071,
      "##فتر": 7072,
      "شعور": 7073,
      "مول": 7074,
      "۲۳": 7075,
      "نشی": 7076,
      "مایع": 7077,
      "بزنین": 7078,
      "خوابه": 7079,
      "افز": 7080,
      "هنگ": 7081,
      "##ویسه": 7082,
      "استاد": 7083,
      "##تل": 7084,
      "کمکت": 7085,
      "مشت": 7086,
      "پرب": 7087,
      "##ینال": 7088,
      "میشینه": 7089,
      "نوه": 7090,
      "##ومی": 7091,
      "دگ": 7092,
      "ممکن": 7093,
      "حضوری": 7094,
      "حرفش": 7095,
      "فعال": 7096,
      "مخلو": 7097,
      "##قف": 7098,
      "##😱😱": 7099,
      "مسی": 7100,
      "فرهنگی": 7101,
      "کاد": 7102,
      "##اتم": 7103,
      "ازدواجم": 7104,
      "یجوری": 7105,
      "گرفتین": 7106,
      "##رزه": 7107,
      "میشناسم": 7108,
      "کمد": 7109,
      "صورتش": 7110,
      "اصفهان": 7111,
      "بنظرت": 7112,
      "😐😂": 7113,
      "##حرف": 7114,
      "ساختمون": 7115,
      "مشکلم": 7116,
      "انص": 7117,
      "##نگه": 7118,
      "ریزی": 7119,
      "اخرین": 7120,
      "اطفال": 7121,
      "##تج": 7122,
      "اورده": 7123,
      "موقعیت": 7124,
      "طفل": 7125,
      "مامانایی": 7126,
      "ماج": 7127,
      "دخترخ": 7128,
      "##فاع": 7129,
      "##خواب": 7130,
      "##😆😆": 7131,
      "##نوع": 7132,
      "وکیل": 7133,
      "واقعیت": 7134,
      "زنم": 7135,
      "##😞😞": 7136,
      "حسودی": 7137,
      "حمد": 7138,
      "##بران": 7139,
      "میخواب": 7140,
      "بگیرین": 7141,
      "کوچه": 7142,
      "##ازن": 7143,
      "##چن": 7144,
      "بزرگتره": 7145,
      "فاز": 7146,
      "##طوری": 7147,
      "##یند": 7148,
      "کاربران": 7149,
      "لوبیا": 7150,
      "دوسم": 7151,
      "مرحله": 7152,
      "نذر": 7153,
      "صند": 7154,
      "##یدیم": 7155,
      "دهنم": 7156,
      "رفتارای": 7157,
      "پنه": 7158,
      "دوروز": 7159,
      "حساسه": 7160,
      "##رشک": 7161,
      "رحمت": 7162,
      "بجز": 7163,
      "عطر": 7164,
      "بهانه": 7165,
      "عمومی": 7166,
      "بادمجون": 7167,
      "##بچ": 7168,
      "رسمی": 7169,
      "##دایی": 7170,
      "دوز": 7171,
      "##😣😣": 7172,
      "ندارید": 7173,
      "حرک": 7174,
      "وااا": 7175,
      "##امت": 7176,
      "خودمه": 7177,
      "میگفتی": 7178,
      "چندماه": 7179,
      "ازاد": 7180,
      "تواین": 7181,
      "میاین": 7182,
      "باال": 7183,
      "تغذیه": 7184,
      "مشتری": 7185,
      "بدونه": 7186,
      "خنک": 7187,
      "سیم": 7188,
      "##امن": 7189,
      "محترم": 7190,
      "##بو": 7191,
      "مردها": 7192,
      "یادت": 7193,
      "یازده": 7194,
      "یهویی": 7195,
      "یلدا": 7196,
      "آهنگ": 7197,
      "باهاتون": 7198,
      "بیاری": 7199,
      "جانم": 7200,
      "فو": 7201,
      "رست": 7202,
      "خاه": 7203,
      "میپرسم": 7204,
      "##فاده": 7205,
      "منف": 7206,
      "آسیب": 7207,
      "رفتارش": 7208,
      "واسه‌ی": 7209,
      "تخمدان": 7210,
      "بکنی": 7211,
      "پشیمونم": 7212,
      "##بند": 7213,
      "خودشه": 7214,
      "پوستی": 7215,
      "##‌اش": 7216,
      "تهم": 7217,
      "کارتون": 7218,
      "نمیزنم": 7219,
      "پرستار": 7220,
      "چله": 7221,
      "##اوردم": 7222,
      "توپ": 7223,
      "##تیسم": 7224,
      "خانومه": 7225,
      "رک": 7226,
      "می‌کرد": 7227,
      "##سین": 7228,
      "حواس": 7229,
      "خانومی": 7230,
      "هویج": 7231,
      "##زنه": 7232,
      "۵۰۰": 7233,
      "محدود": 7234,
      "انگلیسی": 7235,
      "خریدیم": 7236,
      "##اقع": 7237,
      "خامه": 7238,
      "بخیه": 7239,
      "میخره": 7240,
      "سنش": 7241,
      "شوهری": 7242,
      "نخوره": 7243,
      "لیمو": 7244,
      "هرشب": 7245,
      "بخونه": 7246,
      "مدار": 7247,
      "##وقتی": 7248,
      "ترسناک": 7249,
      "زل": 7250,
      "##ایا": 7251,
      "انداختم": 7252,
      "عاط": 7253,
      "مبت": 7254,
      "بفرستید": 7255,
      "##غد": 7256,
      "##وهای": 7257,
      "جلوش": 7258,
      "خوشگلی": 7259,
      "باس": 7260,
      "##زارم": 7261,
      "وقتایی": 7262,
      "مطال": 7263,
      "۲۱": 7264,
      "نمیذاره": 7265,
      "شال": 7266,
      "قرن": 7267,
      "آنقدر": 7268,
      "میخوایم": 7269,
      "اخی": 7270,
      "##خار": 7271,
      "ازمون": 7272,
      "نداشتیم": 7273,
      "شیراز": 7274,
      "منطقی": 7275,
      "##روزی": 7276,
      "پهلو": 7277,
      "عادیه": 7278,
      "گرس": 7279,
      "😘😘😘": 7280,
      "برگشته": 7281,
      "قلبش": 7282,
      "##کنن": 7283,
      "تجربیات": 7284,
      "بزور": 7285,
      "اینترنتی": 7286,
      "تاپیکم": 7287,
      "تبدیل": 7288,
      "آبرو": 7289,
      "گرونه": 7290,
      "آوردم": 7291,
      "طلب": 7292,
      "دانلود": 7293,
      "آنها": 7294,
      "##تور": 7295,
      "دیقه": 7296,
      "چوب": 7297,
      "##🌹🌹": 7298,
      "وزنش": 7299,
      "ارد": 7300,
      "خیاطی": 7301,
      "خودشونو": 7302,
      "دردم": 7303,
      "ونیم": 7304,
      "مخلوط": 7305,
      "##بچه": 7306,
      "نمیام": 7307,
      "##یمون": 7308,
      "##سالگی": 7309,
      "داداشش": 7310,
      "میکنند": 7311,
      "اشته": 7312,
      "میفرو": 7313,
      "رز": 7314,
      "صی": 7315,
      "ماساژ": 7316,
      "کاهش": 7317,
      "کارشون": 7318,
      "##فم": 7319,
      "شبی": 7320,
      "پریودم": 7321,
      "گفتیم": 7322,
      "میفهمم": 7323,
      "میکشید": 7324,
      "مواظب": 7325,
      "ازون": 7326,
      "##وهام": 7327,
      "میتونن": 7328,
      "بفهمم": 7329,
      "لازمه": 7330,
      "##برای": 7331,
      "خوابیده": 7332,
      "اوردن": 7333,
      "بفرم": 7334,
      "😥😥😥": 7335,
      "##ئه": 7336,
      "مامانمم": 7337,
      "۳۵": 7338,
      "##خرم": 7339,
      "##😄😄": 7340,
      "سیگار": 7341,
      "تهدید": 7342,
      "نخوردم": 7343,
      "بغض": 7344,
      "عاقل": 7345,
      "ارشد": 7346,
      "دیونه": 7347,
      "بدجور": 7348,
      "عصبانیت": 7349,
      "قرض": 7350,
      "بیشتری": 7351,
      "##سالمه": 7352,
      "قهرم": 7353,
      "مشخصه": 7354,
      "##اتش": 7355,
      "گیاه": 7356,
      "زدیم": 7357,
      "کجاست": 7358,
      "میخاستم": 7359,
      "جالبه": 7360,
      "اینایی": 7361,
      "نوجو": 7362,
      "نگید": 7363,
      "خل": 7364,
      "منتظرم": 7365,
      "##صلا": 7366,
      "صلاح": 7367,
      "می‌ش": 7368,
      "ادرس": 7369,
      "چار": 7370,
      "بهداشتی": 7371,
      "##همن": 7372,
      "اقتصادی": 7373,
      "جوره": 7374,
      "##لاقی": 7375,
      "شدیدا": 7376,
      "بنویسم": 7377,
      "شمارو": 7378,
      "شاخ": 7379,
      "صابون": 7380,
      "نمیشناس": 7381,
      "مریضه": 7382,
      "ادراری": 7383,
      "کسانی": 7384,
      "##زنش": 7385,
      "😍😍😍😍": 7386,
      "ابت": 7387,
      "سرده": 7388,
      "آفرین": 7389,
      "##زت": 7390,
      "تغیی": 7391,
      "##امل": 7392,
      "هیچکدوم": 7393,
      "باشد": 7394,
      "شکمش": 7395,
      "خاطرات": 7396,
      "طی": 7397,
      "نشدن": 7398,
      "بذارید": 7399,
      "##ومه": 7400,
      "بخونی": 7401,
      "سردی": 7402,
      "اینستاگرام": 7403,
      "اشتها": 7404,
      "همچنان": 7405,
      "پررو": 7406,
      "همینطوری": 7407,
      "نجات": 7408,
      "خانمهای": 7409,
      "عاشقش": 7410,
      "##ریزش": 7411,
      "تلویزیون": 7412,
      "داروهایی": 7413,
      "فیل": 7414,
      "بستنی": 7415,
      "خام": 7416,
      "شستن": 7417,
      "##خیر": 7418,
      "عوضی": 7419,
      "##یییلی": 7420,
      "شرمنده": 7421,
      "۷۰": 7422,
      "جر": 7423,
      "راحته": 7424,
      "خاستگار": 7425,
      "غریبه": 7426,
      "میای": 7427,
      "##لیمو": 7428,
      "##ترسم": 7429,
      "##تونی": 7430,
      "نخورده": 7431,
      "نمیبره": 7432,
      "مسئله": 7433,
      "چشام": 7434,
      "پرسید": 7435,
      "دلتنگ": 7436,
      "##فول": 7437,
      "هرچند": 7438,
      "خوشمز": 7439,
      "چنین": 7440,
      "قدرت": 7441,
      "برگرده": 7442,
      "##ه‌تر": 7443,
      "##ینش": 7444,
      "برسی": 7445,
      "آقایون": 7446,
      "دیدید": 7447,
      "گول": 7448,
      "جس": 7449,
      "جوریه": 7450,
      "##وج": 7451,
      "مشکوک": 7452,
      "حکم": 7453,
      "##لاتی": 7454,
      "##ولیت": 7455,
      "جادوام": 7456,
      "مجلسی": 7457,
      "گش": 7458,
      "##فلی": 7459,
      "روحیه": 7460,
      "خدمت": 7461,
      "میشید": 7462,
      "گرونی": 7463,
      "استان": 7464,
      "##میک": 7465,
      "##لاک": 7466,
      "رفلاکس": 7467,
      "##الو": 7468,
      "لباسشویی": 7469,
      "دارد": 7470,
      "##جیم": 7471,
      "بااینکه": 7472,
      "سوزش": 7473,
      "درشت": 7474,
      "##واز": 7475,
      "خوردی": 7476,
      "وف": 7477,
      "زیرش": 7478,
      "##زیت": 7479,
      "نزده": 7480,
      "##ونش": 7481,
      "چین": 7482,
      "##!!!": 7483,
      "##وسی": 7484,
      "##خواسته": 7485,
      "تجربی": 7486,
      "قشنگی": 7487,
      "نمیرسه": 7488,
      "فصل": 7489,
      "نمیگی": 7490,
      "قلم": 7491,
      "##صبح": 7492,
      "حساسم": 7493,
      "قا": 7494,
      "حواست": 7495,
      "تابستون": 7496,
      "میتونین": 7497,
      "ویژ": 7498,
      "وت": 7499,
      "ساعته": 7500,
      "توخونه": 7501,
      "بچشون": 7502,
      "بارها": 7503,
      "غلطی": 7504,
      "فرستاد": 7505,
      "پلاست": 7506,
      "##یح": 7507,
      "بپوش": 7508,
      "##رمو": 7509,
      "##وووووووو": 7510,
      "ژله": 7511,
      "لیس": 7512,
      "ریاضی": 7513,
      "کلین": 7514,
      "زندگیشون": 7515,
      "میزنیم": 7516,
      "##فس": 7517,
      "تمرین": 7518,
      "اونقد": 7519,
      "سرمایه": 7520,
      "تایید": 7521,
      "##خانو": 7522,
      "یکس": 7523,
      "پرباز": 7524,
      "متری": 7525,
      "بریزه": 7526,
      "ببند": 7527,
      "حرفت": 7528,
      "##ممممم": 7529,
      "موفقیت": 7530,
      "ریش": 7531,
      "میشورم": 7532,
      "بفروشم": 7533,
      "😅😅😅": 7534,
      "##گیل": 7535,
      "اشنا": 7536,
      "بدرد": 7537,
      "افتضاح": 7538,
      "رسیدن": 7539,
      "هول": 7540,
      "پخته": 7541,
      "بکار": 7542,
      "خطر": 7543,
      "لایه": 7544,
      "##ارف": 7545,
      "اعتی": 7546,
      "پروفایل": 7547,
      "بتونی": 7548,
      "گن": 7549,
      "##😬😬": 7550,
      "زمینه": 7551,
      "بشید": 7552,
      "سفیده": 7553,
      "برگردم": 7554,
      "تخصص": 7555,
      "چالش": 7556,
      "##سازی": 7557,
      "بیر": 7558,
      "مهمان": 7559,
      "خواهد": 7560,
      "برداشتم": 7561,
      "داخلش": 7562,
      "تقویت": 7563,
      "خانواده‌ی": 7564,
      "سحر": 7565,
      "خوری": 7566,
      "روده": 7567,
      "نرمال": 7568,
      "دوستاش": 7569,
      "##قدم": 7570,
      "نیان": 7571,
      "شماست": 7572,
      "بیشعور": 7573,
      "لپ": 7574,
      "##ونید": 7575,
      "اید": 7576,
      "خیار": 7577,
      "دفاع": 7578,
      "غذاهای": 7579,
      "میمی": 7580,
      "##خشک": 7581,
      "واااا": 7582,
      "ساعتی": 7583,
      "پرده": 7584,
      "میبینن": 7585,
      "عده": 7586,
      "##رها": 7587,
      "هممون": 7588,
      "اسمی": 7589,
      "پایینه": 7590,
      "تکراری": 7591,
      "ویژگی": 7592,
      "دفتر": 7593,
      "درکت": 7594,
      "##شما": 7595,
      "##گوش": 7596,
      "رفتاری": 7597,
      "میخاست": 7598,
      "واستون": 7599,
      "دیدیم": 7600,
      "##درصد": 7601,
      "موقعی": 7602,
      "جبران": 7603,
      "محرم": 7604,
      "تهمت": 7605,
      "امروزم": 7606,
      "##دفعه": 7607,
      "##اقعا": 7608,
      "افغ": 7609,
      "مرور": 7610,
      "##۱۲": 7611,
      "##گوشت": 7612,
      "واری": 7613,
      "دغد": 7614,
      "##ههههه": 7615,
      "میشناسید": 7616,
      "النگو": 7617,
      "قارچ": 7618,
      "قبلیم": 7619,
      "کله": 7620,
      "اندام": 7621,
      "سانت": 7622,
      "##رایشی": 7623,
      "درمیاد": 7624,
      "مرت": 7625,
      "میدیدم": 7626,
      "موب": 7627,
      "نویس": 7628,
      "##گانه": 7629,
      "##اگه": 7630,
      "##فتن": 7631,
      "برقی": 7632,
      "میزان": 7633,
      "دامن": 7634,
      "متاسفم": 7635,
      "قانونی": 7636,
      "کمال": 7637,
      "😑😑": 7638,
      "پون": 7639,
      "##لامتی": 7640,
      "خاب": 7641,
      "##رع": 7642,
      "ریسک": 7643,
      "دعام": 7644,
      "##غذ": 7645,
      "نرفته": 7646,
      "بچه‌ای": 7647,
      "اونام": 7648,
      "اسپری": 7649,
      "ادما": 7650,
      "##گش": 7651,
      "ادویه": 7652,
      "🤔🤔🤔": 7653,
      "##گا": 7654,
      "موندن": 7655,
      "##فتون": 7656,
      "آدما": 7657,
      "شف": 7658,
      "##زای": 7659,
      "الل": 7660,
      "##جیل": 7661,
      "افرین": 7662,
      "شار": 7663,
      "میخان": 7664,
      "درستش": 7665,
      "برادرش": 7666,
      "کسب": 7667,
      "پهن": 7668,
      "##حس": 7669,
      "دستی": 7670,
      "تلفنی": 7671,
      "##یکس": 7672,
      "بیهوشی": 7673,
      "##وندن": 7674,
      "روانشناسی": 7675,
      "آبی": 7676,
      "دکل": 7677,
      "نمیدونی": 7678,
      "معد": 7679,
      "##روک": 7680,
      "##شونم": 7681,
      "##ورمه": 7682,
      "جیب": 7683,
      "می‌کنید": 7684,
      "جوجه": 7685,
      "زندگیمو": 7686,
      "لوس": 7687,
      "فروشی": 7688,
      "،،،،": 7689,
      "##اهام": 7690,
      "میزنید": 7691,
      "##قاب": 7692,
      "میفهمه": 7693,
      "خوبین": 7694,
      "خانوادت": 7695,
      "شدنمون": 7696,
      "توص": 7697,
      "طلاقم": 7698,
      "جهنم": 7699,
      "سالها": 7700,
      "سونوی": 7701,
      "##رسان": 7702,
      "##له‌ای": 7703,
      "نگین": 7704,
      "افزایش": 7705,
      "##گارم": 7706,
      "مدیری": 7707,
      "##ولیک": 7708,
      "طاقت": 7709,
      "##😨😨": 7710,
      "روزانه": 7711,
      "##سف": 7712,
      "##رق": 7713,
      "##میز": 7714,
      "چیکارش": 7715,
      "##سوزه": 7716,
      "صبور": 7717,
      "آزمون": 7718,
      "آرایشگاه": 7719,
      "آشپزخونه": 7720,
      "😊😊": 7721,
      "توصی": 7722,
      "بشینم": 7723,
      "منظورت": 7724,
      "خیلی‌ها": 7725,
      "میوفته": 7726,
      "##💔💔": 7727,
      "چشمام": 7728,
      "عالمه": 7729,
      "نمیشی": 7730,
      "رنج": 7731,
      "گذاری": 7732,
      "خریدی": 7733,
      "تایپک": 7734,
      "نیا": 7735,
      "ایست": 7736,
      "##یییییییییییییییی": 7737,
      "اشتباهه": 7738,
      "دائم": 7739,
      "##ورده": 7740,
      "##شونه": 7741,
      "العم": 7742,
      "شکرت": 7743,
      "نخورد": 7744,
      "##زندگی": 7745,
      "خییییلی": 7746,
      "نمیخورم": 7747,
      "دوستانی": 7748,
      "نمره": 7749,
      "##شدم": 7750,
      "توو": 7751,
      "برش": 7752,
      "##خوش": 7753,
      "سوار": 7754,
      "بخندیم": 7755,
      "نصفه": 7756,
      "نفری": 7757,
      "کلینیک": 7758,
      "##😡😡": 7759,
      "جات": 7760,
      "لام": 7761,
      "بذاره": 7762,
      "هنر": 7763,
      "جرات": 7764,
      "کمکی": 7765,
      "##همون": 7766,
      "اشتی": 7767,
      "اجرا": 7768,
      "دشم": 7769,
      "فرنگی": 7770,
      "##یتو": 7771,
      "بشورم": 7772,
      "##ودم": 7773,
      "دومم": 7774,
      "قرعه": 7775,
      "شیطون": 7776,
      "بسه": 7777,
      "نیش": 7778,
      "ممنوع": 7779,
      "بردیم": 7780,
      "دا": 7781,
      "همسن": 7782,
      "دلمو": 7783,
      "گه": 7784,
      "##ادف": 7785,
      "مدی": 7786,
      "گردو": 7787,
      "پرورش": 7788,
      "بوش": 7789,
      "روا": 7790,
      "انشاءالله": 7791,
      "رنده": 7792,
      "میترس": 7793,
      "آدرس": 7794,
      "ببخش": 7795,
      "اشکالی": 7796,
      "##فولان": 7797,
      "دراورد": 7798,
      "هفته‌ی": 7799,
      "سوخته": 7800,
      "نبودن": 7801,
      "تفت": 7802,
      "بالاس": 7803,
      "کمرنگ": 7804,
      "بحال": 7805,
      "ترکیه": 7806,
      "رمز": 7807,
      "ندادی": 7808,
      "بپزه": 7809,
      "شوهرمه": 7810,
      "بندی": 7811,
      "فس": 7812,
      "معص": 7813,
      "هوش": 7814,
      "##حل": 7815,
      "بعده": 7816,
      "می‌کنن": 7817,
      "نکنن": 7818,
      "بپرسه": 7819,
      "##رازی": 7820,
      "سالگرد": 7821,
      "##اهه": 7822,
      "##مونو": 7823,
      "اشتباهی": 7824,
      "لیا": 7825,
      "رقص": 7826,
      "مطالعه": 7827,
      "##🤤🤤": 7828,
      "میخند": 7829,
      "کتکم": 7830,
      "شبه": 7831,
      "فرستاده": 7832,
      "شیمی": 7833,
      "مجدد": 7834,
      "کول": 7835,
      "##پد": 7836,
      "##😓😓": 7837,
      "ببینن": 7838,
      "عجیبه": 7839,
      "نذار": 7840,
      "##رهای": 7841,
      "کدومش": 7842,
      "دوساعت": 7843,
      "بندازم": 7844,
      "خرما": 7845,
      "##وف": 7846,
      "تهش": 7847,
      "غیبت": 7848,
      "آدمی": 7849,
      "##لیک": 7850,
      "ادمی": 7851,
      "##سوز": 7852,
      "پان": 7853,
      "آر": 7854,
      "درون": 7855,
      "پایان": 7856,
      "فروشگاه": 7857,
      "کالا": 7858,
      "احوال": 7859,
      "##اشونو": 7860,
      "خیلییییی": 7861,
      "۳۰۰": 7862,
      "شوهراشون": 7863,
      "##خونم": 7864,
      "عن": 7865,
      "گاو": 7866,
      "کمکش": 7867,
      "افتخار": 7868,
      "خوشحالی": 7869,
      "زجر": 7870,
      "میگیم": 7871,
      "مرکز": 7872,
      "سنج": 7873,
      "نقط": 7874,
      "اسمم": 7875,
      "تس": 7876,
      "خمیر": 7877,
      "میپرس": 7878,
      "اعتیاد": 7879,
      "الا": 7880,
      "مظلوم": 7881,
      "ریپ": 7882,
      "##باید": 7883,
      "جوراب": 7884,
      "##صورت": 7885,
      "چادری": 7886,
      "دستشو": 7887,
      "حرفم": 7888,
      "نفره": 7889,
      "قیمه": 7890,
      "هند": 7891,
      "معروف": 7892,
      "آنلاین": 7893,
      "##ارتمان": 7894,
      "موجود": 7895,
      "تاپیکای": 7896,
      "طفلی": 7897,
      "دای": 7898,
      "##۵۰": 7899,
      "دیگم": 7900,
      "دکلره": 7901,
      "فارسی": 7902,
      "مسکن": 7903,
      "داروخونه": 7904,
      "بغلم": 7905,
      "انسانی": 7906,
      "پاهام": 7907,
      "بیارن": 7908,
      "##ولو": 7909,
      "شمال": 7910,
      "خودتونو": 7911,
      "واکنش": 7912,
      "مقع": 7913,
      "زینک": 7914,
      "نمیداد": 7915,
      "پوستت": 7916,
      "تاپ": 7917,
      "نما": 7918,
      "طلسم": 7919,
      "آس": 7920,
      "مهند": 7921,
      "یکیشون": 7922,
      "شکلات": 7923,
      "##گرا": 7924,
      "میخرید": 7925,
      "دمن": 7926,
      "قایم": 7927,
      "نوک": 7928,
      "حقیقت": 7929,
      "##ثلا": 7930,
      "بازد": 7931,
      "واض": 7932,
      "شنیدن": 7933,
      "بشینه": 7934,
      "پولدارها": 7935,
      "موهات": 7936,
      "میشع": 7937,
      "##ضه": 7938,
      "گیج": 7939,
      "پولش": 7940,
      "میکشن": 7941,
      "نگیره": 7942,
      "##ددد": 7943,
      "هیج": 7944,
      "ریم": 7945,
      "یاس": 7946,
      "برطرف": 7947,
      "دیگر": 7948,
      "رون": 7949,
      "لکن": 7950,
      "فهمیده": 7951,
      "گونه": 7952,
      "اسلام": 7953,
      "محب": 7954,
      "فن": 7955,
      "انداخته": 7956,
      "میرین": 7957,
      "##کنین": 7958,
      "خلاص": 7959,
      "علم": 7960,
      "نمیفهمم": 7961,
      "جرم": 7962,
      "پایی": 7963,
      "##چرا": 7964,
      "ضعیفه": 7965,
      "##خد": 7966,
      "نمیخاد": 7967,
      "پیداش": 7968,
      "شغلش": 7969,
      "صرفا": 7970,
      "بذاری": 7971,
      "قورمه": 7972,
      "##ستیم": 7973,
      "مناسبت": 7974,
      "##ییار": 7975,
      "##ینو": 7976,
      "##سالم": 7977,
      "قرنط": 7978,
      "پف": 7979,
      "پاسخ": 7980,
      "مرخص": 7981,
      "ناخواسته": 7982,
      "##آرز": 7983,
      "منتظ": 7984,
      "##طط": 7985,
      "نکنیم": 7986,
      "##جایی": 7987,
      "درحالی": 7988,
      "میگذ": 7989,
      "چشماش": 7990,
      "نح": 7991,
      "تجویز": 7992,
      "بینیم": 7993,
      "##هایی": 7994,
      "فضای": 7995,
      "دلمه": 7996,
      "خانواده‌ها": 7997,
      "##کردن": 7998,
      "##اهد": 7999,
      "بخت": 8000,
      "خم": 8001,
      "##زنم": 8002,
      "ثانیه": 8003,
      "میگرفتم": 8004,
      "وبه": 8005,
      "دبیرستان": 8006,
      "کنده": 8007,
      "آدمای": 8008,
      "##خودش": 8009,
      "میدونستم": 8010,
      "##ماهه": 8011,
      "شود": 8012,
      "لگ": 8013,
      "##ردین": 8014,
      "بخورن": 8015,
      "بزرگترین": 8016,
      "هفتم": 8017,
      "۲۶": 8018,
      "##یلی": 8019,
      "خوند": 8020,
      "وسای": 8021,
      "خونه‌ای": 8022,
      "خستگی": 8023,
      "##باز": 8024,
      "##بانو": 8025,
      "پرستاری": 8026,
      "۲۷": 8027,
      "بگردم": 8028,
      "ارت": 8029,
      "نمیتونن": 8030,
      "##وقع": 8031,
      "ملت": 8032,
      "باری": 8033,
      "۱۴۰۰": 8034,
      "نباشید": 8035,
      "نخود": 8036,
      "##عفرون": 8037,
      "اسنپ": 8038,
      "نوز": 8039,
      "تومنه": 8040,
      "##طوب": 8041,
      "ریختن": 8042,
      "ابراز": 8043,
      "ترمیم": 8044,
      "کردند": 8045,
      "خاکی": 8046,
      "میخونه": 8047,
      "بعضی‌ها": 8048,
      "##وتون": 8049,
      "##😜😜": 8050,
      "##ردار": 8051,
      "تناس": 8052,
      "نیازی": 8053,
      "اسید": 8054,
      "هفتگی": 8055,
      "بیدارش": 8056,
      "نزدیکی": 8057,
      "طلایی": 8058,
      "میرید": 8059,
      "اهان": 8060,
      "##میگه": 8061,
      "##بیل": 8062,
      "بذاریم": 8063,
      "قطعی": 8064,
      "خیالت": 8065,
      "میرسم": 8066,
      "رستوران": 8067,
      "پرون": 8068,
      "مثبته": 8069,
      "رگ": 8070,
      "مگر": 8071,
      "##عع": 8072,
      "مرداد": 8073,
      "نیمشه": 8074,
      "رانندگی": 8075,
      "وه": 8076,
      "بهمن": 8077,
      "ساکت": 8078,
      "##استفاده": 8079,
      "نینییار": 8080,
      "انگاری": 8081,
      "۳۸": 8082,
      "بداخ": 8083,
      "اشتر": 8084,
      "خوشکل": 8085,
      "بتر": 8086,
      "شید": 8087,
      "سیستم": 8088,
      "ربع": 8089,
      "##کنیم": 8090,
      "خونواد": 8091,
      "##پیش": 8092,
      "رتبه": 8093,
      "دوغ": 8094,
      "##چشم": 8095,
      "دنبالم": 8096,
      "تهرانی": 8097,
      "مدیریت": 8098,
      "مشکلت": 8099,
      "##😶😶": 8100,
      "##همش": 8101,
      "ماما": 8102,
      "نباشی": 8103,
      "بالایی": 8104,
      "گرمه": 8105,
      "همونجا": 8106,
      "##وبگید": 8107,
      "دنبالش": 8108,
      "##قده": 8109,
      "##لامت": 8110,
      "سالن": 8111,
      "چیشد": 8112,
      "احساسی": 8113,
      "تعارف": 8114,
      "۸۰": 8115,
      "میشود": 8116,
      "ایت": 8117,
      "##زین": 8118,
      "درصورتی": 8119,
      "نصیحت": 8120,
      "##ارزه": 8121,
      "کهنه": 8122,
      "دخترتون": 8123,
      "مایعات": 8124,
      "ضربان": 8125,
      "پربازدید": 8126,
      "قم": 8127,
      "##ظیم": 8128,
      "مرطوب": 8129,
      "شرایطی": 8130,
      "عربی": 8131,
      "##یچ": 8132,
      "##🤣🤣🤣🤣": 8133,
      "##بیر": 8134,
      "گرفتید": 8135,
      "تخفیف": 8136,
      "اشتراک": 8137,
      "بودند": 8138,
      "تاثی": 8139,
      "دربار": 8140,
      "میخواین": 8141,
      "آوردن": 8142,
      "موافق": 8143,
      "۹۰": 8144,
      "##فره": 8145,
      "دارای": 8146,
      "توصیه": 8147,
      "خلو": 8148,
      "تاثیری": 8149,
      "نپرس": 8150,
      "سابق": 8151,
      "صادقانه": 8152,
      "نج": 8153,
      "داغونه": 8154,
      "##رخه": 8155,
      "سل": 8156,
      "کارد": 8157,
      "داداشت": 8158,
      "تری": 8159,
      "خطرناک": 8160,
      "نفرین": 8161,
      "عمی": 8162,
      "خونت": 8163,
      "دنیای": 8164,
      "کنارم": 8165,
      "اشپزی": 8166,
      "دادید": 8167,
      "پروت": 8168,
      "##هاج": 8169,
      "تولدت": 8170,
      "سبزه": 8171,
      "جامع": 8172,
      "سابقم": 8173,
      "ترکیب": 8174,
      "سهام": 8175,
      "چینی": 8176,
      "گربه": 8177,
      "انج": 8178,
      "بودنش": 8179,
      "روزها": 8180,
      "عروسک": 8181,
      "دیجی": 8182,
      "سوالم": 8183,
      "پرداخت": 8184,
      "چنتا": 8185,
      "نازک": 8186,
      "لکنت": 8187,
      "خفیف": 8188,
      "سع": 8189,
      "نوشتن": 8190,
      "تام": 8191,
      "طرفم": 8192,
      "نزنه": 8193,
      "بلاخره": 8194,
      "دلیلی": 8195,
      "ژنتی": 8196,
      "نمیگن": 8197,
      "حا": 8198,
      "قص": 8199,
      "صیغه": 8200,
      "میگیریم": 8201,
      "دمنوش": 8202,
      "حرفو": 8203,
      "اینها": 8204,
      "خیل": 8205,
      "صدقه": 8206,
      "لغ": 8207,
      "لابد": 8208,
      "کنس": 8209,
      "قشنگتره": 8210,
      "شستم": 8211,
      "اعتراض": 8212,
      "موافقم": 8213,
      "بلایی": 8214,
      "ظرفشویی": 8215,
      "بخوان": 8216,
      "ببرید": 8217,
      "جهاز": 8218,
      "میزاری": 8219,
      "ندم": 8220,
      "برداشته": 8221,
      "مادرشوهرت": 8222,
      "##رمان": 8223,
      "میشناسین": 8224,
      "??": 8225,
      "تحقیر": 8226,
      "##ناکه": 8227,
      "فرشته": 8228,
      "سنم": 8229,
      "ابن": 8230,
      "##ذی": 8231,
      "دردی": 8232,
      "نباشم": 8233,
      "موم": 8234,
      "کدبانو": 8235,
      "شیرخشک": 8236,
      "زنای": 8237,
      "نان": 8238,
      "##خب": 8239,
      "دکترت": 8240,
      "تنش": 8241,
      "##داریم": 8242,
      "مطلق": 8243,
      "😪😪😪": 8244,
      "نقاشی": 8245,
      "اشپزخونه": 8246,
      "میایم": 8247,
      "ببریم": 8248,
      "عکسش": 8249,
      "هفتس": 8250,
      "##ضم": 8251,
      "##لیل": 8252,
      "ضر": 8253,
      "😅😅": 8254,
      "بازه": 8255,
      "دارویی": 8256,
      "مبتلا": 8257,
      "زعفرون": 8258,
      "نمیومد": 8259,
      "ادمای": 8260,
      "استخد": 8261,
      "##رایز": 8262,
      "فریزر": 8263,
      "##چری": 8264,
      "یجور": 8265,
      "دین": 8266,
      "قی": 8267,
      "انار": 8268,
      "همونم": 8269,
      "##عدم": 8270,
      "اینست": 8271,
      "هرچیزی": 8272,
      "فامیلای": 8273,
      "منطق": 8274,
      "صل": 8275,
      "##روئ": 8276,
      "عذ": 8277,
      "فدای": 8278,
      "😘😘": 8279,
      "کردنش": 8280,
      "##😭😭😭": 8281,
      "زرشک": 8282,
      "استخدام": 8283,
      "تزی": 8284,
      "کاسه": 8285,
      "هرگز": 8286,
      "باشع": 8287,
      "واحد": 8288,
      "لن": 8289,
      "بهار": 8290,
      "توت": 8291,
      "سازی": 8292,
      "نمیتونستم": 8293,
      "شوهرتو": 8294,
      "ساق": 8295,
      "##دست": 8296,
      "##باشه": 8297,
      "لیسانس": 8298,
      "##رگ": 8299,
      "نمیاره": 8300,
      "نشین": 8301,
      "عکسسس": 8302,
      "صفح": 8303,
      "##امروز": 8304,
      "مزخ": 8305,
      "وجه": 8306,
      "ناامید": 8307,
      "لیاقت": 8308,
      "خداح": 8309,
      "مقابل": 8310,
      "چطوریه": 8311,
      "تود": 8312,
      "##آرزوتون": 8313,
      "جاهای": 8314,
      "جادوامآرزوتون": 8315,
      "جادوامآرزوتونوبگید": 8316,
      "##سبه": 8317,
      "خودته": 8318,
      "##اته": 8319,
      "بفرستین": 8320,
      "مردای": 8321,
      "نمیبینم": 8322,
      "##اپیش": 8323,
      "سایه": 8324,
      "##درد": 8325,
      "دلخو": 8326,
      "##وتی": 8327,
      "پدرت": 8328,
      "بلنده": 8329,
      "مجرده": 8330,
      "مناسبه": 8331,
      "نقطه": 8332,
      "شهرمون": 8333,
      "دهان": 8334,
      "درستی": 8335,
      "آشنایی": 8336,
      "بقی": 8337,
      "چرک": 8338,
      "راهنماییت": 8339,
      "##میوه": 8340,
      "بیوتیک": 8341,
      "##قر": 8342,
      "میخوندم": 8343,
      "همسرمم": 8344,
      "ملیون": 8345,
      "گفتین": 8346,
      "می‌ده": 8347,
      "غروب": 8348,
      "ضرو": 8349,
      "آخی": 8350,
      "##صله": 8351,
      "باورت": 8352,
      "مثال": 8353,
      "می‌شه": 8354,
      "حوصل": 8355,
      "واااای": 8356,
      "##دری": 8357,
      "##ضمن": 8358,
      "خییلی": 8359,
      "مینویسم": 8360,
      "آرو": 8361,
      "##خخخخ": 8362,
      "خوشبحالت": 8363,
      "تال": 8364,
      "مود": 8365,
      "نظرتونو": 8366,
      "بمان": 8367,
      "##زو": 8368,
      "بخونین": 8369,
      "خسیس": 8370,
      "همشو": 8371,
      "شیره": 8372,
      "##خوانده": 8373,
      "درش": 8374,
      "مشکلش": 8375,
      "##ودن": 8376,
      "سقف": 8377,
      "کوکو": 8378,
      "ناراحته": 8379,
      "رضایت": 8380,
      "شارژ": 8381,
      "موعد": 8382,
      "##😂😂😂": 8383,
      "منظورش": 8384,
      "هزینش": 8385,
      "علتش": 8386,
      "نمیمونه": 8387,
      "##کید": 8388,
      "رهن": 8389,
      "بساز": 8390,
      "طرا": 8391,
      "مرتبه": 8392,
      "مض": 8393,
      "اشغال": 8394,
      "عجیبی": 8395,
      "##ااااااا": 8396,
      "صندلی": 8397,
      "استخدامی": 8398,
      "دورب": 8399,
      "میخوریم": 8400,
      "جایزه": 8401,
      "صورتت": 8402,
      "عاطفی": 8403,
      "می‌شود": 8404,
      "اله": 8405,
      "بردارم": 8406,
      "افکار": 8407,
      "انداختن": 8408,
      "اصلن": 8409,
      "نیار": 8410,
      "بینیش": 8411,
      "مارکی": 8412,
      "آموز": 8413,
      "میزنین": 8414,
      "سان": 8415,
      "##کلی": 8416,
      "کبد": 8417,
      "خانگی": 8418,
      "چگونه": 8419,
      "لیست": 8420,
      "اونجایی": 8421,
      "عکسمو": 8422,
      "کیلویی": 8423,
      "##جعه": 8424,
      "میدادن": 8425,
      "##۲۰": 8426,
      "##اهاتون": 8427,
      "بدست": 8428,
      "##ثل": 8429,
      "گلوم": 8430,
      "میزدن": 8431,
      "##نظر": 8432,
      "##زیک": 8433,
      "نشونه": 8434,
      "کرج": 8435,
      "قید": 8436,
      "وز": 8437,
      "##اول": 8438,
      "پنجره": 8439,
      "زشتی": 8440,
      "راز": 8441,
      "همینجور": 8442,
      "پولشو": 8443,
      "یکماه": 8444,
      "##االله": 8445,
      "برج": 8446,
      "مهربونه": 8447,
      "آرزوی": 8448,
      "۴۵": 8449,
      "پیشاپیش": 8450,
      "انگیز": 8451,
      "سینم": 8452,
      "ومن": 8453,
      "زنج": 8454,
      "##ویسی": 8455,
      "مقص": 8456,
      "بلاک": 8457,
      "نعنا": 8458,
      "باق": 8459,
      "انلاین": 8460,
      "ماشالله": 8461,
      "##خترم": 8462,
      "مامانمو": 8463,
      "تکلی": 8464,
      "پله": 8465,
      "میبرن": 8466,
      "گوشش": 8467,
      "عوضش": 8468,
      "##اندگی": 8469,
      "بیارید": 8470,
      "سرف": 8471,
      "گنده": 8472,
      "انو": 8473,
      "بازدید": 8474,
      "پختم": 8475,
      "##بین": 8476,
      "بشقاب": 8477,
      "##تجربه": 8478,
      "تمرک": 8479,
      "وحشی": 8480,
      "شرایطش": 8481,
      "##زما": 8482,
      "حضور": 8483,
      "##فولانزا": 8484,
      "قوان": 8485,
      "اخم": 8486,
      "کوچیکم": 8487,
      "تامین": 8488,
      "فولیک": 8489,
      "##غی": 8490,
      "دارچین": 8491,
      "بلدن": 8492,
      "بهتری": 8493,
      "نگهش": 8494,
      "جنو": 8495,
      "ذکر": 8496,
      "هاله": 8497,
      "هاتونو": 8498,
      "محتاج": 8499,
      "راس": 8500,
      "پناه": 8501,
      "دلای": 8502,
      "تنوع": 8503,
      "##نمیدونم": 8504,
      "عملی": 8505,
      "کوب": 8506,
      "خاهر": 8507,
      "##سیون": 8508,
      "شماری": 8509,
      "بذارین": 8510,
      "نمیزارم": 8511,
      "حرصم": 8512,
      "تازگیا": 8513,
      "##سکه": 8514,
      "چروک": 8515,
      "کمکتون": 8516,
      "مادربزرگم": 8517,
      "خوابش": 8518,
      "نند": 8519,
      "🥺🥺🥺": 8520,
      "واضح": 8521,
      "ناف": 8522,
      "مدتی": 8523,
      "متع": 8524,
      "نوره": 8525,
      "مربی": 8526,
      "فرزندخوانده": 8527,
      "منطقه": 8528,
      "پاهاش": 8529,
      "حب": 8530,
      "##میل": 8531,
      "قالب": 8532,
      "می‌د": 8533,
      "خداییش": 8534,
      "آسم": 8535,
      "سهم": 8536,
      "دوی": 8537,
      "زرنگ": 8538,
      "ناشت": 8539,
      "##خواهی": 8540,
      "خوردیم": 8541,
      "مراجعه": 8542,
      "پارچ": 8543,
      "رسیدگی": 8544,
      "نمیفهمه": 8545,
      "##اندوی": 8546,
      "##چوبه": 8547,
      "تواف": 8548,
      "نمیز": 8549,
      "حالمو": 8550,
      "انتقال": 8551,
      "شوهرای": 8552,
      "ازدست": 8553,
      "##نفر": 8554,
      "##بهش": 8555,
      "صحیح": 8556,
      "مقعد": 8557,
      "ظلم": 8558,
      "بامن": 8559,
      "خیاط": 8560,
      "مخفی": 8561,
      "لواشک": 8562,
      "آفتاب": 8563,
      "##سکو": 8564,
      "##خوام": 8565,
      "هل": 8566,
      "##راین": 8567,
      "گوشم": 8568,
      "نچ": 8569,
      "##انیا": 8570,
      "اخلاقی": 8571,
      "سنت": 8572,
      "فهمیدن": 8573,
      "عمرم": 8574,
      "نذری": 8575,
      "##ضای": 8576,
      "امیدی": 8577,
      "دکتره": 8578,
      "##طرتون": 8579,
      "عس": 8580,
      "کشت": 8581,
      "کوه": 8582,
      "گله": 8583,
      "نشدی": 8584,
      "تایم": 8585,
      "یکیو": 8586,
      "گلوش": 8587,
      "موبایل": 8588,
      "##عاتی": 8589,
      "تنگی": 8590,
      "معم": 8591,
      "قلبی": 8592,
      "حت": 8593,
      "فرزندخو": 8594,
      "میشناسه": 8595,
      "شوهرا": 8596,
      "اولیه": 8597,
      "تولید": 8598,
      "##شتر": 8599,
      "چندوقت": 8600,
      "کری": 8601,
      "##ودل": 8602,
      "بچه‌اش": 8603,
      "میتونیم": 8604,
      "همینجا": 8605,
      "سوت": 8606,
      "کجای": 8607,
      "##زله": 8608,
      "روانپزشک": 8609,
      "فرزندخواندگی": 8610,
      "هماه": 8611,
      "واریز": 8612,
      "ترکید": 8613,
      "بخاد": 8614,
      "خبره": 8615,
      "کادوی": 8616,
      "##شوب": 8617,
      "یسری": 8618,
      "##رژ": 8619,
      "اولویت": 8620,
      "پدرشوهر": 8621,
      "شرط": 8622,
      "پولم": 8623,
      "دعواش": 8624,
      "افطار": 8625,
      "تنم": 8626,
      "فم": 8627,
      "##وپ": 8628,
      "##۳۰": 8629,
      "زنت": 8630,
      "میفرستین": 8631,
      "کمپ": 8632,
      "همسری": 8633,
      "تابلو": 8634,
      "##ولا": 8635,
      "اساس": 8636,
      "واژینال": 8637,
      "سز": 8638,
      "دردسر": 8639,
      "بچشو": 8640,
      "مهاج": 8641,
      "مواقع": 8642,
      "بدنت": 8643,
      "خرو": 8644,
      "ختنه": 8645,
      "ننه": 8646,
      "همزمان": 8647,
      "##جد": 8648,
      "پنجاه": 8649,
      "خرجی": 8650,
      "شیرازی": 8651,
      "##ه‌ایم": 8652,
      "خس": 8653,
      "پرش": 8654,
      "گرام": 8655,
      "اضافی": 8656,
      "برداره": 8657,
      "بلدین": 8658,
      "##😀😀": 8659,
      "اینطوریه": 8660,
      "لال": 8661,
      "هان": 8662,
      "۳۷": 8663,
      "میون": 8664,
      "سلیق": 8665,
      "ساندوی": 8666,
      "صدام": 8667,
      "فرزندی": 8668,
      "نگرفته": 8669,
      "آزار": 8670,
      "بدیه": 8671,
      "##لک": 8672,
      "قوانین": 8673,
      "نمونده": 8674,
      "اونها": 8675,
      "هورمون": 8676,
      "آرام": 8677,
      "کارها": 8678,
      "چیزیش": 8679,
      "آمین": 8680,
      "باطل": 8681,
      "میگو": 8682,
      "معی": 8683,
      "پاشم": 8684,
      "##میلیون": 8685,
      "آجی": 8686,
      "##ئین": 8687,
      "##اسک": 8688,
      "شوهرمن": 8689,
      "درب": 8690,
      "روزهای": 8691,
      "دخم": 8692,
      "حرفایی": 8693,
      "نخواب": 8694,
      "میلاد": 8695,
      "##عفر": 8696,
      "دیابت": 8697,
      "بکشی": 8698,
      "بسلامتی": 8699,
      "##ردا": 8700,
      "خیره": 8701,
      "قرنطینه": 8702,
      "بیوفته": 8703,
      "سور": 8704,
      "زندگیتو": 8705,
      "ادمو": 8706,
      "بیهوش": 8707,
      "مهاجرت": 8708,
      "طن": 8709,
      "##اهاش": 8710,
      "صفت": 8711,
      "##ساز": 8712,
      "ماها": 8713,
      "مهربونی": 8714,
      "مطلقه": 8715,
      "هربار": 8716,
      "موارد": 8717,
      "##ویید": 8718,
      "پدری": 8719,
      "خدان": 8720,
      "##اشد": 8721,
      "سلا": 8722,
      "ارزو": 8723,
      "آها": 8724,
      "##ورا": 8725,
      "برنده": 8726,
      "نقش": 8727,
      "آیه": 8728,
      "سیک": 8729,
      "۴۰۰": 8730,
      "##پسرم": 8731,
      "!!!!!": 8732,
      "ریمل": 8733,
      "جلب": 8734,
      "ناد": 8735,
      "عینک": 8736,
      "##رایه": 8737,
      "روهم": 8738,
      "شکلی": 8739,
      "🤣🤣🤣🤣": 8740,
      "##میکرون": 8741,
      "تحصیلات": 8742,
      "ندی": 8743,
      "چیزو": 8744,
      "بررسی": 8745,
      "مطمعن": 8746,
      "دربیاد": 8747,
      "دراومد": 8748,
      "انق": 8749,
      "مدرس": 8750,
      "اختیار": 8751,
      "نداشتی": 8752,
      "وآ": 8753,
      "میترکه": 8754,
      "##پایی": 8755,
      "نمی‌تونم": 8756,
      "بانو": 8757,
      "هرکدوم": 8758,
      "##سفند": 8759,
      "خوابیدم": 8760,
      "دوتایی": 8761,
      "##پسر": 8762,
      "کارام": 8763,
      "سوتی": 8764,
      "تنبل": 8765,
      "بابامم": 8766,
      "واینکه": 8767,
      "##ذکر": 8768,
      "ظه": 8769,
      "حواسم": 8770,
      "الم": 8771,
      "اراده": 8772,
      "انح": 8773,
      "چشه": 8774,
      "##خام": 8775,
      "اکسی": 8776,
      "##واره": 8777,
      "فعالیت": 8778,
      "نیاورد": 8779,
      "تیغ": 8780,
      "مشابه": 8781,
      "اگزما": 8782,
      "جورایی": 8783,
      "دستشون": 8784,
      "##علی": 8785,
      "۹۹": 8786,
      "خییییی": 8787,
      "نیو": 8788,
      "بلدم": 8789,
      "راضیه": 8790,
      "ذات": 8791,
      "اینجورین": 8792,
      "نگفتن": 8793,
      "سنجی": 8794,
      "##استه": 8795,
      "عجله": 8796,
      "سنو": 8797,
      "زمونه": 8798,
      "لخت": 8799,
      "مطلب": 8800,
      "پیم": 8801,
      "انتی": 8802,
      "##شر": 8803,
      "لا": 8804,
      "پوستش": 8805,
      "لم": 8806,
      "##بیا": 8807,
      "##یمه": 8808,
      "صبحونه": 8809,
      "دیدمش": 8810,
      "نزنم": 8811,
      "فکرش": 8812,
      "میکردید": 8813,
      "دخترمم": 8814,
      "غرو": 8815,
      "##پار": 8816,
      "بندازه": 8817,
      "😢😢😢😢😢": 8818,
      "رمض": 8819,
      "رفتین": 8820,
      "مدیر": 8821,
      "کمککککک": 8822,
      "میلرزه": 8823,
      "حین": 8824,
      "شنا": 8825,
      "شهریور": 8826,
      "خنگ": 8827,
      "عزیزی": 8828,
      "تعه": 8829,
      "میکرو": 8830,
      "سرشون": 8831,
      "بریدم": 8832,
      "گوسفند": 8833,
      "می‌کنی": 8834,
      "سامسون": 8835,
      "قانع": 8836,
      "زلزله": 8837,
      "خوشگلم": 8838,
      "جهان": 8839,
      "##کرسی": 8840,
      "اللهم": 8841,
      "نتیج": 8842,
      "همسایمون": 8843,
      "زنداداشم": 8844,
      "##ااین": 8845,
      "😔😔😔😔": 8846,
      "حلی": 8847,
      "شبکه": 8848,
      "##اشویی": 8849,
      "ویژه": 8850,
      "میرفتیم": 8851,
      "اداره": 8852,
      "کشک": 8853,
      "##جوی": 8854,
      "تعلق": 8855,
      "نمیخواستم": 8856,
      "بپرسید": 8857,
      "بماند": 8858,
      "کپی": 8859,
      "باریک": 8860,
      "بافت": 8861,
      "##پزشکی": 8862,
      "##چچ": 8863,
      "😭😭😭😭😭😭": 8864,
      "اوج": 8865,
      "عاشقشم": 8866,
      "زودرس": 8867,
      "شورت": 8868,
      "##٠٠": 8869,
      "یکساله": 8870,
      "کلید": 8871,
      "زائ": 8872,
      "مادرشوهرتون": 8873,
      "تاخیر": 8874,
      "##❤❤❤❤": 8875,
      "اونارو": 8876,
      "ولرم": 8877,
      "چندم": 8878,
      "مهمی": 8879,
      "نزدیکه": 8880,
      "نگهداری": 8881,
      "دریغ": 8882,
      "جوابمو": 8883,
      "میریزن": 8884,
      "مطرح": 8885,
      "وابست": 8886,
      "##امونو": 8887,
      "تویه": 8888,
      "نگاش": 8889,
      "##ااقل": 8890,
      "میذارن": 8891,
      "جاها": 8892,
      "بیخ": 8893,
      "تنظیم": 8894,
      "ایندفعه": 8895,
      "دغدغه": 8896,
      "حسم": 8897,
      "مدا": 8898,
      "نمیگ": 8899,
      "وهم": 8900,
      "علاوه": 8901,
      "##جای": 8902,
      "##صرف": 8903,
      "واسطه": 8904,
      "پروژ": 8905,
      "علمی": 8906,
      "کچ": 8907,
      "موش": 8908,
      "افتاب": 8909,
      "لگن": 8910,
      "نبات": 8911,
      "برداری": 8912,
      "میکرده": 8913,
      "پنجم": 8914,
      "میخوابم": 8915,
      "##جمه": 8916,
      "##نامه": 8917,
      "##🙏🏻": 8918,
      "کاریش": 8919,
      "میپوشم": 8920,
      "##واب": 8921,
      "پنجشنبه": 8922,
      "دورش": 8923,
      "دیپ": 8924,
      "##ادرم": 8925,
      "شین": 8926,
      "##ستر": 8927,
      "مادربزرگ": 8928,
      "##وانه": 8929,
      "##شمند": 8930,
      "##بخ": 8931,
      "درضمن": 8932,
      "خواهرز": 8933,
      "می‌توان": 8934,
      "موسی": 8935,
      "ناح": 8936,
      "پشتم": 8937,
      "حنا": 8938,
      "زنونه": 8939,
      "خلط": 8940,
      "تاپیکا": 8941,
      "مزاج": 8942,
      "هاست": 8943,
      "درحال": 8944,
      "##😐😐😐😐😐😐😐😐": 8945,
      "۳۲": 8946,
      "پیشه": 8947,
      "دعایی": 8948,
      "تصوی": 8949,
      "تصادف": 8950,
      "الکرسی": 8951,
      "بداخلاق": 8952,
      "اونروز": 8953,
      "زناشویی": 8954,
      "خوشتون": 8955,
      "مسئولیت": 8956,
      "شستشو": 8957,
      "تابه": 8958,
      "لباسای": 8959,
      "ماله": 8960,
      "خواهرشوه": 8961,
      "طبیعت": 8962,
      "شنیده": 8963,
      "کلن": 8964,
      "##حالم": 8965,
      "اسامی": 8966,
      "نمیتونیم": 8967,
      "خواستگارم": 8968,
      "دسر": 8969,
      "کلیپ": 8970,
      "یکسره": 8971,
      "نبودی": 8972,
      "شغلی": 8973,
      "عدالت": 8974,
      "میخرن": 8975,
      "جوان": 8976,
      "میپزم": 8977,
      "مجبوری": 8978,
      "تور": 8979,
      "مادرا": 8980,
      "حلق": 8981,
      "استخون": 8982,
      "عدس": 8983,
      "ماجرا": 8984,
      "زشتم": 8985,
      "##رفس": 8986,
      "آنو": 8987,
      "لق": 8988,
      "ازمن": 8989,
      "😒😒😒": 8990,
      "مولتی": 8991,
      "همکاری": 8992,
      "قشنگترین": 8993,
      "چنان": 8994,
      "اتاقم": 8995,
      "##لطفا": 8996,
      "چهارتا": 8997,
      "اقایون": 8998,
      "آرد": 8999,
      "##ینن": 9000,
      "امیر": 9001,
      "شان": 9002,
      "##🤩🤩": 9003,
      "ناق": 9004,
      "##هههههههه": 9005,
      "بشناس": 9006,
      "مقا": 9007,
      "##وعه": 9008,
      "##ثه": 9009,
      "امضا": 9010,
      "زیارت": 9011,
      "محس": 9012,
      "دره": 9013,
      "بنویسه": 9014,
      "یواشکی": 9015,
      "##پخت": 9016,
      "##👏👏": 9017,
      "بیداد": 9018,
      "وایس": 9019,
      "😢😢😢😢": 9020,
      "لااقل": 9021,
      "فکرمی": 9022,
      "رابطمون": 9023,
      "معصوم": 9024,
      "##وض": 9025,
      "##یز": 9026,
      "##😫😫": 9027,
      "عرضه": 9028,
      "همینم": 9029,
      "نخریدم": 9030,
      "ایمنی": 9031,
      "اقدامم": 9032,
      "بفهمن": 9033,
      "آتیش": 9034,
      "موعدم": 9035,
      "هیچکی": 9036,
      "##رغ": 9037,
      "تاپیکی": 9038,
      "میلیارد": 9039,
      "رل": 9040,
      "مانت": 9041,
      "##تان": 9042,
      "حالتون": 9043,
      "عطاری": 9044,
      "عکسای": 9045,
      "قبلم": 9046,
      "میتونستم": 9047,
      "##امانم": 9048,
      "##منون": 9049,
      "##زند": 9050,
      "بخواه": 9051,
      "اتیش": 9052,
      "دریا": 9053,
      "قلو": 9054,
      "کوفت": 9055,
      "حرفه‌ای": 9056,
      "معدم": 9057,
      "خوشگلا": 9058,
      "تکونی": 9059,
      "😐😐😐😐": 9060,
      "ولم": 9061,
      "##روت": 9062,
      "##وای": 9063,
      "##راج": 9064,
      "ندین": 9065,
      "نمیکشه": 9066,
      "الکیه": 9067,
      "زان": 9068,
      "کلام": 9069,
      "دوماهه": 9070,
      "دهانه": 9071,
      "بریزی": 9072,
      "نخوندم": 9073,
      "شغلتون": 9074,
      "درسم": 9075,
      "توک": 9076,
      "درمانش": 9077,
      "پوچ": 9078,
      "دیوانه": 9079,
      "هدفم": 9080,
      "انومالی": 9081,
      "##بات": 9082,
      "##ایشم": 9083,
      "واتس": 9084,
      "ملح": 9085,
      "گاه": 9086,
      "بهشت": 9087,
      "زردچوبه": 9088,
      "متفاوته": 9089,
      "درمیاره": 9090,
      "##🤍🤍": 9091,
      "مخالفت": 9092,
      "##😩😩": 9093,
      "نخواد": 9094,
      "تصو": 9095,
      "🙏🏻": 9096,
      "طلاه": 9097,
      "حفظش": 9098,
      "اینجاست": 9099,
      "لین": 9100,
      "وچ": 9101,
      "متاهلی": 9102,
      "عمیق": 9103,
      "##واقعا": 9104,
      "کدبان": 9105,
      "شوید": 9106,
      "##ررررر": 9107,
      "خسی": 9108,
      "خداست": 9109,
      "کتابی": 9110,
      "اسیب": 9111,
      "خرداد": 9112,
      "نکته": 9113,
      "##پشت": 9114,
      "واجبه": 9115,
      "کاس": 9116,
      "ومی": 9117,
      "##مونه": 9118,
      "مسخرم": 9119,
      "عاقبت": 9120,
      "زر": 9121,
      "##شا": 9122,
      "همونه": 9123,
      "##الح": 9124,
      "کاریه": 9125,
      "هشتاد": 9126,
      "پرتق": 9127,
      "هک": 9128,
      "لاکچری": 9129,
      "کارشناس": 9130,
      "بارز": 9131,
      "میاری": 9132,
      "راستشو": 9133,
      "میندازن": 9134,
      "اورژانس": 9135,
      "##چک": 9136,
      "اوتیسم": 9137,
      "ورزشی": 9138,
      "میندازم": 9139,
      "سامسونگ": 9140,
      "##اشین": 9141,
      "##تتتت": 9142,
      "##کلاس": 9143,
      "وظیف": 9144,
      "آرایشی": 9145,
      "براب": 9146,
      "نمایش": 9147,
      "دکور": 9148,
      "بپز": 9149,
      "انشالا": 9150,
      "تزیین": 9151,
      "بیایم": 9152,
      "شنیدید": 9153,
      "اغ": 9154,
      "شیرم": 9155,
      "مزاحم": 9156,
      "ناشتا": 9157,
      "انکار": 9158,
      "کدام": 9159,
      "خاستگاری": 9160,
      "شدنش": 9161,
      "نظری": 9162,
      "تونستم": 9163,
      "توبه": 9164,
      "استا": 9165,
      "پوشش": 9166,
      "ابی": 9167,
      "نمیری": 9168,
      "زردی": 9169,
      "گندم": 9170,
      "محلش": 9171,
      "پسرونه": 9172,
      "اهن": 9173,
      "برکت": 9174,
      "مثله": 9175,
      "پیگیری": 9176,
      "دشمن": 9177,
      "بسم": 9178,
      "##فون": 9179,
      "۲۹": 9180,
      "##وتر": 9181,
      "تبریز": 9182,
      "اینی": 9183,
      "طبع": 9184,
      "ترن": 9185,
      "شریک": 9186,
      "##نظ": 9187,
      "معمولیه": 9188,
      "کدو": 9189,
      "تیروئ": 9190,
      "فرهنگیان": 9191,
      "شنیدین": 9192,
      "اردی": 9193,
      "تلا": 9194,
      "لبن": 9195,
      "پرید": 9196,
      "شبانه": 9197,
      "تیروی": 9198,
      "لامصب": 9199,
      "دورم": 9200,
      "##سالش": 9201,
      "اکس": 9202,
      "##اختی": 9203,
      "نزدن": 9204,
      "پست‌های": 9205,
      "۲۰۲": 9206,
      "##کانش": 9207,
      "میمونم": 9208,
      "خاله‌ام": 9209,
      "کپ": 9210,
      "قهریم": 9211,
      "امان": 9212,
      "##ووووو": 9213,
      "مادرشوهرمم": 9214,
      "داروخانه": 9215,
      "انگشتر": 9216,
      "اطلاعی": 9217,
      "اینور": 9218,
      "همسرشون": 9219,
      "جنبه": 9220,
      "هاتو": 9221,
      "محصول": 9222,
      "##خان": 9223,
      "خواستن": 9224,
      "دعاتون": 9225,
      "عالم": 9226,
      "##میکنم": 9227,
      "گزینه": 9228,
      "افتادگی": 9229,
      "پرونده": 9230,
      "رام": 9231,
      "گریم": 9232,
      "##ماهشه": 9233,
      "کاک": 9234,
      "دریافت": 9235,
      "غش": 9236,
      "گوه": 9237,
      "واجب": 9238,
      "اضطر": 9239,
      "تکه": 9240,
      "فریز": 9241,
      "میفرسته": 9242,
      "اسپرم": 9243,
      "میبرمش": 9244,
      "ابروم": 9245,
      "خسته‌ام": 9246,
      "🤔🤔": 9247,
      "کارگر": 9248,
      "تولدش": 9249,
      "##☹☹": 9250,
      "تجربه‌ی": 9251,
      "بیدارم": 9252,
      "##اتونو": 9253,
      "گفتار": 9254,
      "کارهایی": 9255,
      "##انتزی": 9256,
      "ویزیت": 9257,
      "تاش": 9258,
      "سرعت": 9259,
      "لباسم": 9260,
      "پاشویه": 9261,
      "نود": 9262,
      "##تازه": 9263,
      "کلاسی": 9264,
      "درمیون": 9265,
      "دیکه": 9266,
      "##ریکا": 9267,
      "خونوادم": 9268,
      "گزاشتم": 9269,
      "می‌ک": 9270,
      "وابستگی": 9271,
      "سوز": 9272,
      "بیرونم": 9273,
      "دهم": 9274,
      "جذ": 9275,
      "نشستن": 9276,
      "نتونه": 9277,
      "##غم": 9278,
      "عمرا": 9279,
      "اطلاعاتی": 9280,
      "حیوون": 9281,
      "بفرمایید": 9282,
      "هروز": 9283,
      "##اییه": 9284,
      "فوش": 9285,
      "دارا": 9286,
      "سوزن": 9287,
      "کدومو": 9288,
      "##خواستم": 9289,
      "لاغرم": 9290,
      "زعفر": 9291,
      "دخترد": 9292,
      "بمونی": 9293,
      "##افته": 9294,
      "مقاوم": 9295,
      "الو": 9296,
      "چهارشنبه": 9297,
      "آهن": 9298,
      "خلوت": 9299,
      "رها": 9300,
      "برگه": 9301,
      "نذاشت": 9302,
      "ایمان": 9303,
      "میداره": 9304,
      "فروختم": 9305,
      "شاء": 9306,
      "دوروزه": 9307,
      "زنانه": 9308,
      "پسرتون": 9309,
      "##فکر": 9310,
      "علامت": 9311,
      "اینام": 9312,
      "راهکاری": 9313,
      "اقدامی": 9314,
      "متاهلم": 9315,
      "افغان": 9316,
      "مریم": 9317,
      "همکلا": 9318,
      "🙄🙄🙄": 9319,
      "دلمون": 9320,
      "عاش": 9321,
      "خداکنه": 9322,
      "نظرش": 9323,
      "ساندویچ": 9324,
      "محسوب": 9325,
      "برسید": 9326,
      "طراحی": 9327,
      "می‌گفت": 9328,
      "شوهرامون": 9329,
      "نگفتی": 9330,
      "##اینکه": 9331,
      "بکنن": 9332,
      "##شوند": 9333,
      "تعلی": 9334,
      "کرفس": 9335,
      "نمیپ": 9336,
      "حرفه": 9337,
      "دماغش": 9338,
      "مبارکت": 9339,
      "ترد": 9340,
      "نمیارم": 9341,
      "اسما": 9342,
      "😋😋😋": 9343,
      "##ستو": 9344,
      "ابجی": 9345,
      "میاورد": 9346,
      "جزو": 9347,
      "می‌خواد": 9348,
      "سوختگی": 9349,
      "خیاب": 9350,
      "سرس": 9351,
      "بزرگش": 9352,
      "کوچیکتر": 9353,
      "پیششون": 9354,
      "##عفونی": 9355,
      "حلال": 9356,
      "##چیه": 9357,
      "##😏😏": 9358,
      "##خصصی": 9359,
      "روشون": 9360,
      "فشارم": 9361,
      "مخم": 9362,
      "اینجام": 9363,
      "هرچه": 9364,
      "بخصوص": 9365,
      "پوس": 9366,
      "برادرت": 9367,
      "شفای": 9368,
      "تاپیک‌های": 9369,
      "فهمیدی": 9370,
      "نمیبینه": 9371,
      "##سترون": 9372,
      "خیلى": 9373,
      "دستام": 9374,
      "عزت": 9375,
      "##سیر": 9376,
      "##اسکرین": 9377,
      "##دختر": 9378,
      "میسا": 9379,
      "ببرن": 9380,
      "دردودل": 9381,
      "ناله": 9382,
      "مردونه": 9383,
      "روتین": 9384,
      "##بهم": 9385,
      "اخرم": 9386,
      "ریزه": 9387,
      "آدمو": 9388,
      "گرف": 9389,
      "پدروم": 9390,
      "میکش": 9391,
      "پیگیر": 9392,
      "نشان": 9393,
      "باورتون": 9394,
      "اورژانسی": 9395,
      "؟!!": 9396,
      "##کلن": 9397,
      "عاشقتم": 9398,
      "شکن": 9399,
      "میشکنه": 9400,
      "پاچه": 9401,
      "خشکه": 9402,
      "پولو": 9403,
      "تنهای": 9404,
      "دورهمی": 9405,
      "میبینیم": 9406,
      "درخت": 9407,
      "خیلیی": 9408,
      "اطمین": 9409,
      "تناسلی": 9410,
      "قف": 9411,
      "##چیزی": 9412,
      "##؟؟؟": 9413,
      "حاضره": 9414,
      "ریپلای": 9415,
      "##امان": 9416,
      "میدو": 9417,
      "نمیدی": 9418,
      "##بهشت": 9419,
      "رحمم": 9420,
      "##نیست": 9421,
      "##رنج": 9422,
      "🙏🙏🙏": 9423,
      "##ریت": 9424,
      "میخر": 9425,
      "##شیر": 9426,
      "الن": 9427,
      "##واک": 9428,
      "زیادم": 9429,
      "نشنیدم": 9430,
      "جسمی": 9431,
      "##ریا": 9432,
      "##گره": 9433,
      "مغزم": 9434,
      "روحیم": 9435,
      "نقد": 9436,
      "##قیقه": 9437,
      "موهاشو": 9438,
      "دیپلم": 9439,
      "##🤦♀": 9440,
      "##میاد": 9441,
      "ملحفه": 9442,
      "نیز": 9443,
      "فرج": 9444,
      "موردش": 9445,
      "سرگرمی": 9446,
      "مفت": 9447,
      "مدته": 9448,
      "همیش": 9449,
      "##بارم": 9450,
      "برنگ": 9451,
      "##راست": 9452,
      "پسند": 9453,
      "ماشینو": 9454,
      "جع": 9455,
      "دوختم": 9456,
      "بخورید": 9457,
      "😳😳😳": 9458,
      "دلایل": 9459,
      "##مولی": 9460,
      "راهه": 9461,
      "برندگان": 9462,
      "دفه": 9463,
      "امکانش": 9464,
      "😐😐😐😐😐": 9465,
      "درآورد": 9466,
      "😂😂😂😂😂😂": 9467,
      "##ظرتون": 9468,
      "فالور": 9469,
      "ورود": 9470,
      "گناهی": 9471,
      "بیایی": 9472,
      "اندازه‌ی": 9473,
      "برقرار": 9474,
      "بخونیم": 9475,
      "پشم": 9476,
      "##ریش": 9477,
      "نازن": 9478,
      "مهربونم": 9479,
      "استخر": 9480,
      "خش": 9481,
      "##۱۵": 9482,
      "##😖😖": 9483,
      "عدم": 9484,
      "شدند": 9485,
      "امین": 9486,
      "😣😣😣": 9487,
      "##رداری": 9488,
      "بیکاری": 9489,
      "##زارو": 9490,
      "سرکو": 9491,
      "پولمو": 9492,
      "فرض": 9493,
      "ادر": 9494,
      "ترجمه": 9495,
      "##لکس": 9496,
      "##گرو": 9497,
      "همچی": 9498,
      "هرزه": 9499,
      "پشتش": 9500,
      "حرکات": 9501,
      "تالار": 9502,
      "##اشورا": 9503,
      "##داشت": 9504,
      "##۱۳": 9505,
      "باقی": 9506,
      "خیالم": 9507,
      "##ابیاین": 9508,
      "شاغلم": 9509,
      "پسرمم": 9510,
      "خشکی": 9511,
      "انحراف": 9512,
      "مجاز": 9513,
      "##یییییی": 9514,
      "##اصلا": 9515,
      "بمیره": 9516,
      "امنی": 9517,
      "##نجون": 9518,
      "همرو": 9519,
      "درگیری": 9520,
      "درحد": 9521,
      "##زیزم": 9522,
      "نیستا": 9523,
      "ابجیم": 9524,
      "بنف": 9525,
      "تذکر": 9526,
      "چشمای": 9527,
      "گلدون": 9528,
      "عل": 9529,
      "میکند": 9530,
      "۳۶": 9531,
      "خداوند": 9532,
      "خالیه": 9533,
      "##غغ": 9534,
      "کمتره": 9535,
      "ترسیده": 9536,
      "بلاگر": 9537,
      "نمیان": 9538,
      "عملش": 9539,
      "موها": 9540,
      "آلرژی": 9541,
      "یچیزی": 9542,
      "احساسات": 9543,
      "ضدعفونی": 9544,
      "میشینم": 9545,
      "طلاقت": 9546,
      "برادرشوهر": 9547,
      "های": 9548,
      "کثافت": 9549,
      "عاشورا": 9550,
      "##گریه": 9551,
      "میاید": 9552,
      "##شمش": 9553,
      "خواهرانه": 9554,
      "ناس": 9555,
      "نمیخره": 9556,
      "مغزی": 9557,
      "نمیزارن": 9558,
      "تکلیف": 9559,
      "کارگاه": 9560,
      "انجیر": 9561,
      "بدتره": 9562,
      "مطمع": 9563,
      "پلیس": 9564,
      "تلافی": 9565,
      "غلی": 9566,
      "مایه": 9567,
      "##لاصه": 9568,
      "روستا": 9569,
      "شیرده": 9570,
      "الویه": 9571,
      "بارون": 9572,
      "نزنید": 9573,
      "##صف": 9574,
      "##۱۴": 9575,
      "اینبار": 9576,
      "سالو": 9577,
      "##امش": 9578,
      "هیجان": 9579,
      "تصویر": 9580,
      "یارو": 9581,
      "همر": 9582,
      "زنداداش": 9583,
      "تعهد": 9584,
      "همی": 9585,
      "##ترو": 9586,
      "خور": 9587,
      "سرمون": 9588,
      "تبادل": 9589,
      "مالیش": 9590,
      "شاهده": 9591,
      "مداد": 9592,
      "اطرا": 9593,
      "##جده": 9594,
      "بخار": 9595,
      "آشغال": 9596,
      "شعله": 9597,
      "##وار": 9598,
      "آلو": 9599,
      "استعد": 9600,
      "##خودت": 9601,
      "بتام": 9602,
      "گشنمه": 9603,
      "گشاد": 9604,
      "لاز": 9605,
      "روتون": 9606,
      "مهارت": 9607,
      "هزارتا": 9608,
      "بیارین": 9609,
      "پاد": 9610,
      "یان": 9611,
      "نتونم": 9612,
      "همینطوره": 9613,
      "کاپ": 9614,
      "##🥰🥰": 9615,
      "کورد": 9616,
      "آبجی": 9617,
      "ایرانیا": 9618,
      "موضو": 9619,
      "امیدوار": 9620,
      "نحوه": 9621,
      "نیفت": 9622,
      "گوشو": 9623,
      "سنگینه": 9624,
      "تدری": 9625,
      "##جل": 9626,
      "##یتم": 9627,
      "ملای": 9628,
      "اخرشم": 9629,
      "میر": 9630,
      "شلوغه": 9631,
      "حروم": 9632,
      "هوشی": 9633,
      "۳۹": 9634,
      "پسرای": 9635,
      "مغرور": 9636,
      "##ننن": 9637,
      "زخ": 9638,
      "##بتی": 9639,
      "آمار": 9640,
      "نرسیده": 9641,
      "بادی": 9642,
      "زگیل": 9643,
      "داخلی": 9644,
      "ویه": 9645,
      "یکمم": 9646,
      "##یکم": 9647,
      "تاپیکو": 9648,
      "وو": 9649,
      "مغاز": 9650,
      "##شششش": 9651,
      "شوهرتم": 9652,
      "خانواده‌های": 9653,
      "فامیلام": 9654,
      "هنری": 9655,
      "اطمینان": 9656,
      "توسط": 9657,
      "بخاری": 9658,
      "سوالات": 9659,
      "معتبر": 9660,
      "آنومالی": 9661,
      "وقتش": 9662,
      "##افه": 9663,
      "منتها": 9664,
      "##🙁🙁": 9665,
      "خوبیم": 9666,
      "دخترخالم": 9667,
      "##آب": 9668,
      "دولت": 9669,
      "😍😍😍😍😍": 9670,
      "جلوم": 9671,
      "سورپ": 9672,
      "۳۴": 9673,
      "نوجوون": 9674,
      "##سرد": 9675,
      "ماهش": 9676,
      "کرات": 9677,
      "نمیگیرم": 9678,
      "حمله": 9679,
      "##پرو": 9680,
      "دمی": 9681,
      "##باری": 9682,
      "##گزار": 9683,
      "##فاصله": 9684,
      "نگذره": 9685,
      "هرچقد": 9686,
      "😄😄😄": 9687,
      "##الانم": 9688,
      "بچمم": 9689,
      "راحت‌تر": 9690,
      "غمگین": 9691,
      "ملکه": 9692,
      "نکش": 9693,
      "##لان": 9694,
      "تیروئید": 9695,
      "همونی": 9696,
      "بروز": 9697,
      "حقوقش": 9698,
      "بکنید": 9699,
      "توصیف": 9700,
      "نگاهش": 9701,
      "لغو": 9702,
      "دویست": 9703,
      "نمیدونن": 9704,
      "خوابیدن": 9705,
      "خالص": 9706,
      "یس": 9707,
      "##شدن": 9708,
      "میخنده": 9709,
      "لیفت": 9710,
      "کب": 9711,
      "##😎😎": 9712,
      "مصاح": 9713,
      "نوشابه": 9714,
      "باتو": 9715,
      "##یشتر": 9716,
      "واسشون": 9717,
      "جوابی": 9718,
      "نیومدن": 9719,
      "زائد": 9720,
      "پور": 9721,
      "ژی": 9722,
      "روست": 9723,
      "حضانت": 9724,
      "هنرم": 9725,
      "تغییری": 9726,
      "آماد": 9727,
      "اکسیژن": 9728,
      "خیییییلی": 9729,
      "##گگ": 9730,
      "##سیه": 9731,
      "تومنی": 9732,
      "گور": 9733,
      "نبینه": 9734,
      "سوسک": 9735,
      "عشقی": 9736,
      "دوسالشه": 9737,
      "##غر": 9738,
      "دخترونه": 9739,
      "کنکورم": 9740,
      "نهم": 9741,
      "کلو": 9742,
      "کارامو": 9743,
      "دهنت": 9744,
      "تمرکز": 9745,
      "ارام": 9746,
      "##۱۸": 9747,
      "ازاون": 9748,
      "دستمو": 9749,
      "چنگ": 9750,
      "جداش": 9751,
      "فامیلی": 9752,
      "شعر": 9753,
      "داروهای": 9754,
      "##خواهرم": 9755,
      "لحظه‌های": 9756,
      "##اختم": 9757,
      "مسا": 9758,
      "🤣🤣🤣🤣🤣": 9759,
      "یجا": 9760,
      "بخرن": 9761,
      "##یتی": 9762,
      "##ادن": 9763,
      "بهبود": 9764,
      "ادکلن": 9765,
      "ذهنت": 9766,
      "عکسو": 9767,
      "تحریک": 9768,
      "رنگه": 9769,
      "ماهانه": 9770,
      "طرفدار": 9771,
      "حجله": 9772,
      "شهید": 9773,
      "##اخه": 9774,
      "فداتشم": 9775,
      "سید": 9776,
      "دارع": 9777,
      "قدیمیه": 9778,
      "قوم": 9779,
      "فضول": 9780,
      "توانایی": 9781,
      "##دکتر": 9782,
      "##تاب": 9783,
      "بچه‌ات": 9784,
      "##برم": 9785,
      "می‌تون": 9786,
      "ساخته": 9787,
      "روند": 9788,
      "##اهده": 9789,
      "ادبی": 9790,
      "قهره": 9791,
      "##میخوام": 9792,
      "غرور": 9793,
      "تصویری": 9794,
      "مخاط": 9795,
      "پلاستیک": 9796,
      "##ادا": 9797,
      "کنسل": 9798,
      "##تاژ": 9799,
      "غسل": 9800,
      "کرایه": 9801,
      "##سان": 9802,
      "##ستانه": 9803,
      "##وهم": 9804,
      "بازیگر": 9805,
      "نخواست": 9806,
      "##جمع": 9807,
      "عقدیم": 9808,
      "سالتونه": 9809,
      "آپارتمان": 9810,
      "##جاب": 9811,
      "چیشده": 9812,
      "علیه": 9813,
      "کرب": 9814,
      "بابامو": 9815,
      "ظاهرا": 9816,
      "پوسته": 9817,
      "پاشدم": 9818,
      "کتلت": 9819,
      "نخورم": 9820,
      "نقشه": 9821,
      "وفاد": 9822,
      "🥺🥺": 9823,
      "##کارو": 9824,
      "فکرکنم": 9825,
      "نمی‌کنه": 9826,
      "کاراشو": 9827,
      "لگد": 9828,
      "۲۰۲۱۰": 9829,
      "بشنوه": 9830,
      "##جنس": 9831,
      "یع": 9832,
      "رازی": 9833,
      "قرصی": 9834,
      "سرشو": 9835,
      "کولر": 9836,
      "تپش": 9837,
      "##کارم": 9838,
      "##هههههه": 9839,
      "##ویزون": 9840,
      "ارا": 9841,
      "بقیش": 9842,
      "بغلت": 9843,
      "آهان": 9844,
      "##مممممممم": 9845,
      "می‌کنیم": 9846,
      "هیکلم": 9847,
      "ترشحات": 9848,
      "##ظهر": 9849,
      "ازک": 9850,
      "نکردیم": 9851,
      "طفلک": 9852,
      "خداااا": 9853,
      "چشاش": 9854,
      "شرف": 9855,
      "##ستید": 9856,
      "زایمانتون": 9857,
      "میخواستیم": 9858,
      "خانمهایی": 9859,
      "تجا": 9860,
      "جایگاه": 9861,
      "میپوش": 9862,
      "##میلی": 9863,
      "مراعات": 9864,
      "تخصصی": 9865,
      "مناف": 9866,
      "اذیتش": 9867,
      "گذرون": 9868,
      "بجاش": 9869,
      "سبزیجات": 9870,
      "میفهمی": 9871,
      "نسخه": 9872,
      "##خیره": 9873,
      "مانند": 9874,
      "کراش": 9875,
      "منن": 9876,
      "بخود": 9877,
      "تتو": 9878,
      "خدار": 9879,
      "روشی": 9880,
      "نبینم": 9881,
      "نیاوردم": 9882,
      "منظم": 9883,
      "خواننده": 9884,
      "چاره": 9885,
      "گود": 9886,
      "##ایتا": 9887,
      "##حتما": 9888,
      "چندساله": 9889,
      "کروناست": 9890,
      "دماغم": 9891,
      "پونصد": 9892,
      "بشو": 9893,
      "گره": 9894,
      "می‌ارزه": 9895,
      "سپاس": 9896,
      "داش": 9897,
      "سیلی": 9898,
      "بپوشه": 9899,
      "پاییز": 9900,
      "تیرویید": 9901,
      "قن": 9902,
      "##کرو": 9903,
      "آنتی": 9904,
      "سایو": 9905,
      "##نوعی": 9906,
      "میشور": 9907,
      "مرخصی": 9908,
      "بلی": 9909,
      "##جوش": 9910,
      "##داز": 9911,
      "شمارشو": 9912,
      "عکسی": 9913,
      "##هفت": 9914,
      "ندارد": 9915,
      "هشتادی": 9916,
      "##ردرد": 9917,
      "دستکش": 9918,
      "راهش": 9919,
      "گوارش": 9920,
      "زار": 9921,
      "کوچولوی": 9922,
      "##روش": 9923,
      "عکسا": 9924,
      "##یهای": 9925,
      "زوج": 9926,
      "اهدا": 9927,
      "میشنوم": 9928,
      "هرچقدر": 9929,
      "آنفولانزا": 9930,
      "شمالی": 9931,
      "فروشنده": 9932,
      "دیشبم": 9933,
      "کجاش": 9934,
      "خصوصا": 9935,
      "خداحافظ": 9936,
      "##👇👇": 9937,
      "فروردین": 9938,
      "تمیزی": 9939,
      "ظاهری": 9940,
      "مزخرف": 9941,
      "سیو": 9942,
      "دیدنش": 9943,
      "لحن": 9944,
      "گیرم": 9945,
      "استخوان": 9946,
      "تمایل": 9947,
      "پیشنهادی": 9948,
      "ابریزش": 9949,
      "##زززز": 9950,
      "چاقو": 9951,
      "نرماله": 9952,
      "پوشید": 9953,
      "##تیکه": 9954,
      "بنویسید": 9955,
      "ضروری": 9956,
      "😥😥": 9957,
      "بیداره": 9958,
      "اوا": 9959,
      "بارداره": 9960,
      "پوستتون": 9961,
      "درکل": 9962,
      "قیافم": 9963,
      "##۱۶": 9964,
      "##ودگی": 9965,
      "مرز": 9966,
      "##خیم": 9967,
      "گوشیشو": 9968,
      "انگور": 9969,
      "توجهی": 9970,
      "بدوزم": 9971,
      "حرار": 9972,
      "پاست": 9973,
      "##کاو": 9974,
      "سرماخورده": 9975,
      "اردیبهشت": 9976,
      "##کین": 9977,
      "چیست": 9978,
      "حاله": 9979,
      "پیک": 9980,
      "توج": 9981,
      "میفهمن": 9982,
      "آقایی": 9983,
      "جونت": 9984,
      "۳۱": 9985,
      "##ییت": 9986,
      "سرکلا": 9987,
      "دیرتر": 9988,
      "بایه": 9989,
      "نگهدار": 9990,
      "عذرخواهی": 9991,
      "فیک": 9992,
      "##شق": 9993,
      "داشتنی": 9994,
      "زندان": 9995,
      "مهدی": 9996,
      "ترمه": 9997,
      "مسواک": 9998,
      "هماهنگ": 9999,
      "حواسش": 10000,
      "##لال": 10001,
      "سرزنش": 10002,
      "استرسی": 10003,
      "سفیدی": 10004,
      "##حا": 10005,
      "کاربرا": 10006,
      "والله": 10007,
      "😕😕😕": 10008,
      "##شره": 10009,
      "ازهم": 10010,
      "##خواد": 10011,
      "خانواده‌اش": 10012,
      "نزاشت": 10013,
      "رومی": 10014,
      "۱۵۰": 10015,
      "لر": 10016,
      "##خلاصه": 10017,
      "صرفه": 10018,
      "هااا": 10019,
      "توس": 10020,
      "بخام": 10021,
      "آبریزش": 10022,
      "برگزار": 10023,
      "شرو": 10024,
      "حسش": 10025,
      "دلنوشت": 10026,
      "سنگینی": 10027,
      "همشم": 10028,
      "ساله‌ام": 10029,
      "نمیزنن": 10030,
      "امضات": 10031,
      "مدارس": 10032,
      "غلیظ": 10033,
      "😆😆😆": 10034,
      "##اومد": 10035,
      "یکمی": 10036,
      "خواهری": 10037,
      "ببخشیدا": 10038,
      "لوله": 10039,
      "بگرد": 10040,
      "چشمی": 10041,
      "##بیاین": 10042,
      "##جباری": 10043,
      "حدودی": 10044,
      "##شهر": 10045,
      "موثر": 10046,
      "سواستفاده": 10047,
      "زیباترین": 10048,
      "##ذم": 10049,
      "ازدواجمون": 10050,
      "تاپیکت": 10051,
      "توافقی": 10052,
      "چو": 10053,
      "❤❤❤": 10054,
      "مثانه": 10055,
      "ناخون": 10056,
      "وبا": 10057,
      "میگرده": 10058,
      "##رتم": 10059,
      "واای": 10060,
      "##التی": 10061,
      "##رفته": 10062,
      "زنها": 10063,
      "فکرشو": 10064,
      "میگیرین": 10065,
      "تعلیق": 10066,
      "نازه": 10067,
      "منبع": 10068,
      "همدی": 10069,
      "مطمئنی": 10070,
      "قاط": 10071,
      "ببرین": 10072,
      "میبرد": 10073,
      "دوربین": 10074,
      "خف": 10075,
      "زانو": 10076,
      "پلاس": 10077,
      "بخرید": 10078,
      "اپی": 10079,
      "زورم": 10080,
      "عایا": 10081,
      "دعان": 10082,
      "وقتم": 10083,
      "ماشالا": 10084,
      "زمستون": 10085,
      "اکانت": 10086,
      "بچتو": 10087,
      "کرونایی": 10088,
      "##پوست": 10089,
      "شکمت": 10090,
      "بزارن": 10091,
      "خواهرمم": 10092,
      "ابتدایی": 10093,
      "هندی": 10094,
      "##👌👌": 10095,
      "کاربرای": 10096,
      "پلک": 10097,
      "قورت": 10098,
      "😞😞😞": 10099,
      "##یدو": 10100,
      "دوما": 10101,
      "درگیره": 10102,
      "بلاکش": 10103,
      "😕😕": 10104,
      "##حق": 10105,
      "میگردم": 10106,
      "دیواری": 10107,
      "دستتون": 10108,
      "کالسکه": 10109,
      "سومی": 10110,
      "زنک": 10111,
      "ناش": 10112,
      "نمیزد": 10113,
      "##زرگ": 10114,
      "کجاس": 10115,
      "##وووووو": 10116,
      "پوشیده": 10117,
      "تشوی": 10118,
      "##خال": 10119,
      "پات": 10120,
      "کما": 10121,
      "##بشه": 10122,
      "نمیخوای": 10123,
      "##گذار": 10124,
      "اطرافتون": 10125,
      "##یمم": 10126,
      "ورا": 10127,
      "##فری": 10128,
      "ممنوعه": 10129,
      "خونمو": 10130,
      "سطل": 10131,
      "##تورو": 10132,
      "بحق": 10133,
      "خاستم": 10134,
      "سوی": 10135,
      "الحم": 10136,
      "شبها": 10137,
      "اینجوریم": 10138,
      "گذاشتیم": 10139,
      "کنجکا": 10140,
      "##لما": 10141,
      "سیزده": 10142,
      "##بارداری": 10143,
      "لایق": 10144,
      "##۰۰۰": 10145,
      "رخت": 10146,
      "شبم": 10147,
[...]
